#version: 0.2
t h
i n
th e</w>
a n
e r
o u
t o</w>
a t</w>
in g</w>
i s</w>
a r
e n
o f</w>
o n
r e
t i
a l
o r
e d</w>
th e
i t
an d</w>
i n</w>
s t
th at</w>
o n</w>
e s</w>
h a
n d</w>
r o
e r</w>
l y</w>
v e</w>
w h
a t
a n</w>
o m
A nd</w>
a c
l i
l e</w>
o u</w>
s e</w>
e c
' s</w>
s t</w>
o r</w>
a s</w>
T h
y ou</w>
i t</w>
n o
w e</w>
l o
i c
e n</w>
er e</w>
th is</w>
a l</w>
a b
e l
s i
d i
u r
l d</w>
l e
ou t</w>
ar e</w>
m a
ti on</w>
v er
b e
i l
en t</w>
m e</w>
o p
d e
r i
u t</w>
n e
k e</w>
s e
h o
al ly</w>
ha ve</w>
w as</w>
f or</w>
S o</w>
a y</w>
g o
g h
u n
w it
t s</w>
p ro
ou r</w>
wit h</w>
r a
w or
p e
a s
b e</w>
on e</w>
c om
c h
m o
e x
c an</w>
al l</w>
ab out</w>
the y</w>
u l
t o
the r</w>
p o
c e</w>
i r
g e
g e</w>
' t</w>
wh at</w>
gh t</w>
o l
r e</w>
s a
d o</w>
u c
t 's</w>
ou ld</w>
e s
c on
p er
no t</w>
th in
s h
op le</w>
d o
w e
no w</w>
p l
' re</w>
t er
s o</w>
a r</w>
Th e</w>
d s</w>
v i
t a
pe ople</w>
s om
B ut</w>
th ing</w>
ver y</w>
or e</w>
s p
m e
f ro
t r
m y</w>
on s</w>
t u
fro m</w>
a u
b o
s c
u st</w>
y e
- -</w>
it y</w>
W e</w>
i m
k ing</w>
ur e</w>
li ke</w>
f f
a m
s u
a tion</w>
ho w</w>
an t</w>
q u
d e</w>
the se</w>
I '
it 's</w>
a d
at e</w>
ar s</w>
u s</w>
er s</w>
j ust</w>
b y</w>
h e
u p</w>
t ed</w>
i s
the m</w>
th ere</w>
a ti
el l</w>
t er</w>
p p
i f</w>
v er</w>
f or
W h
u m
m ore</w>
a g
c ou
se e</w>
u s
in d</w>
go ing</w>
lo o
g s</w>
t h</w>
p ar
o ther</w>
o w</w>
i r</w>
f e
Th e
c i
w ay</w>
ge t</w>
r ou
Th is</w>
wh en</w>
t e
ha d</w>
g i
w ere</w>
k now</w>
h e</w>
y our</w>
p re
thin k</w>
il l</w>
wor ld</w>
tu ally</w>
I t's</w>
an y</w>
h i
w n</w>
g h</w>
e 's</w>
y ou
i d</w>
au se</w>
v e
f i
re ally</w>
a y
o d</w>
s s</w>
in e</w>
en ce</w>
som e
ha s</w>
b ut</w>
t ing</w>
Y ou</w>
ec ause</w>
ac tually</w>
ye ars</w>
un d
h ere</w>
ti c
wh ere</w>
w ould</w>
the ir</w>
I t</w>
e m
st ar
com p
ti me</w>
n 't</w>
l l</w>
l a
a d</w>
e v
c o
N ow</w>
w ill</w>
on 't</w>
l it
ou nd</w>
f u
er e's</w>
s el
the n</w>
som e</w>
ab le</w>
a p
wh o</w>
m ent</w>
ic h</w>
d ay</w>
k s</w>
in to</w>
c re
al l
t al
st r
ma ke</w>
f ac
b i
d on't</w>
v es</w>
t le</w>
di ff
b u
s o
m i
g o</w>
st or
ch an
uc h</w>
d ing</w>
f o
I' m</w>
w ant</w>
be en</w>
en ts</w>
st e
p h
o se</w>
en t
i z
f ir
wh ich</w>
c ould</w>
thin gs</w>
t w
t ure</w>
th an</w>
t ec
lit tle</w>
ha pp
g y</w>
b ac
ou r
ha t's</w>
pro b
mo st</w>
f e</w>
es s</w>
sa id</w>
p or
e t</w>
at ed</w>
The y</w>
c e
th at
s y
that 's</w>
p le</w>
ti ons</w>
g re
d y</w>
k ed</w>
in ter
' ve</w>
diff er
0 0</w>
m uch</w>
c a
al so</w>
ri ght</w>
fir st</w>
d uc
en d</w>
loo k</w>
th ose</w>
go t</w>
t ur
ou s</w>
ne w</w>
an s</w>
li fe</w>
ay s</w>
some thing</w>
I n</w>
v ing</w>
t y</w>
g u
wor k</w>
we 're</w>
t ri
on ly</w>
Wh at</w>
si on</w>
n o</w>
en ti
ec t</w>
ac e</w>
tw o</w>
st u
re e</w>
p a
ne ed</w>
i de
b le</w>
k ind</w>
b ecause</w>
i es</w>
ta ke</w>
ti m
it s</w>
y 're</w>
th rou
th ou
s ur
g ra
ar d</w>
ec on
si g
it e</w>
h um
om e</w>
ic e</w>
d ed</w>
r u
c an
bac k</w>
und er
m s</w>
lo t</w>
ti c</w>
throu gh</w>
t ra
ic al</w>
cou n
on g</w>
o ver</w>
c l
com m
com e</w>
w i
stor y</w>
si de</w>
you 're</w>
th ere's</w>
sa me</w>
le ar
h is</w>
a ge</w>
fu l</w>
differ ent</w>
con t
ar ound</w>
ac h</w>
w er</w>
d er</w>
at er</w>
tec h
r an
d u
W e
lo gy</w>
k e
por t
m in
l s</w>
g en
ar y</w>
ti es</w>
a f
n ing</w>
m on
c h</w>
T hat's</w>
I f</w>
y ing</w>
s ho
n i
go od</w>
c ol
al s</w>
so ci
s ay</w>
m any</w>
ev en</w>
do ing</w>
d n't</w>
c all
I n
s ti
ou n
o b
c ent</w>
bo dy</w>
u se</w>
tech no
ec i
di d</w>
ex per
b er</w>
ati ons</w>
ac h
H e</w>
prob le
po s
on al</w>
ma g
do wn</w>
an ce</w>
W ell</w>
Th ere</w>
t e</w>
re s
f r
f a
si m
sel f</w>
ol u
li c
st s</w>
re d</w>
p s</w>
g er</w>
at ing</w>
w ays</w>
per cent</w>
f ore</w>
d er
an s
wh o
ti ve</w>
th ree</w>
f in
f f</w>
call ed</w>
be ing</w>
per s
p i
m ar
tr y</w>
o k</w>
chan ge</w>
c ul
be t
t re
il li
w s</w>
s en
re c
pl an
b ec
B ecause</w>
ver y
v ir
h er</w>
e very</w>
af ter</w>
un i
u e</w>
i c</w>
cou r
under st
p ic
or t</w>
n ed</w>
e st
b r
a m</w>
star ted</w>
l es</w>
the y're</w>
s er
im port
I' ve</w>
v ed</w>
ma de</w>
cour se</w>
p r
or s</w>
m at
lo w</w>
de sig
ye ar</w>
tim es</w>
o l</w>
happ en
ge ther</w>
us ed</w>
t ell</w>
sh e</w>
p ri
be fore</w>
C h
to gether</w>
pro duc
o wn</w>
bu il
b it</w>
t ly</w>
re s</w>
g rou
f ind</w>
d re
at e
ag o</w>
a in</w>
w an
to day</w>
p u
mi ght</w>
l ec
in g
b ra
re ad
le a
la st</w>
h el
c es</w>
techno logy</w>
p ut</w>
in t</w>
import ant</w>
y s</w>
w om
ve lo
fe w</w>
ex p
en g
e very
ca me</w>
b l
an y
ab ly</w>
pl ace</w>
i ence</w>
tal k</w>
ste m</w>
lo c
gi ve</w>
fac t</w>
a in
wi th
w ell</w>
sh ould</w>
s how</w>
o ld</w>
m or
li ght</w>
k es</w>
in e
ide a</w>
be g
s s
qu es
le ss</w>
d at
al iz
0 00</w>
sti ll</w>
star t</w>
par t</w>
k i
il l
i ld</w>
hum an</w>
c ar
wh y</w>
we 've</w>
sh i
n um
m u
j ec
f t</w>
ce p
si ble</w>
e l</w>
c ess</w>
w r
w ing</w>
ter s</w>
ro o
p e</w>
hi m</w>
g ro
c ur
' ll</w>
s ing</w>
ne ss</w>
n s</w>
for m</w>
ex am
de velo
an d
us ing</w>
thou ght</w>
k no
in s</w>
f ul
d eci
bra in</w>
be li
ar i
w ater</w>
w ar
f am
Wh en</w>
v en</w>
sel ves</w>
sc ho
m an
di sc
d ic
chan g
al ity</w>
ac t</w>
tal king</w>
t en
sy stem</w>
proble m</w>
ou s
inter est
illi on</w>
dat a</w>
comp le
b as
who le</w>
w al
vir on
ul ar</w>
s econ
gre at</w>
g a
c or
bi g</w>
a st</w>
H ow</w>
tic al</w>
t el
par tic
loo king</w>
f l
en viron
do es</w>
desig n</w>
c el
a way</w>
1 0</w>
t ting</w>
t en</w>
st o
soci al</w>
me ans</w>
le t</w>
es s
di dn't</w>
comp u
ar t</w>
underst and</w>
read y</w>
prob ably</w>
po int</w>
ne x
m er
li m
ic ally</w>
he al
g er
fr ic
ch il
beli e
Th at</w>
ul t</w>
th er
s m
s k
or g
o t</w>
ne ver</w>
i mag
gen er
econ om
c er
ar ly</w>
an other</w>
y s
w ent</w>
to o</w>
o ff</w>
nex t</w>
n ec
m an</w>
in ess</w>
in cre
at es</w>
A fric
wan ted</w>
v en
re sp
ques tion</w>
ic i
al ways</w>
The se</w>
v o
si c</w>
roo m</w>
re as
pre s
p as
ma tion</w>
ma king</w>
l ar
il ity</w>
i ght</w>
f ound</w>
es n't</w>
em s</w>
e ver</w>
e ach</w>
do esn't</w>
di a</w>
can 't</w>
Th ere's</w>
w a
s pe
s it
re l
po wer</w>
ou gh</w>
n at
me an</w>
l ong</w>
im p
i d
fo od</w>
fam i
1 9
str uc
si ons</w>
s ha
s ec
po li
pers on</w>
m om
l an
j o
in side</w>
in gs</w>
h al
fu ture</w>
exam ple</w>
e w</w>
c ho
bec ome</w>
b re
F or</w>
u m</w>
tri es</w>
si st
se e
pl ac
org an
m y
m is
in for
en er
e ff
develo p
comm un
ati ve</w>
M y</w>
or y</w>
o ff
num ber</w>
ma y</w>
j ect</w>
i l</w>
er i
e y</w>
di vi
c u
c en
ar e
ar ch
L e
w on
ver n
scho ol</w>
s olu
p ati
ne e
l ine</w>
h op
en d
cre ate</w>
cont in
bet ter</w>
ag ain</w>
a se</w>
5 0</w>
ur ing</w>
tr ans
th s</w>
t y
stu d
ou t
mer ic
i st
f ri
d ri
c r
c all</w>
a pp
We 're</w>
The y're</w>
S he</w>
O n
A meric
we e
w ed</w>
to ok</w>
re ad</w>
pos sible</w>
on es</w>
o ver
lo ve</w>
lear n</w>
l on
l dn't</w>
is h</w>
ic s</w>
hel p</w>
go vern
fi ve</w>
dre n</w>
coun tries</w>
ca se</w>
an im
al most</w>
E ar
wor king</w>
wom en</w>
we en</w>
st er
s ort</w>
s ol
s es</w>
re al</w>
ma y
it ed</w>
infor mation</w>
h u
go es</w>
fac e</w>
en ough</w>
di s
chil dren</w>
bet ween</w>
b us
2 0</w>
to p</w>
secon d</w>
me m
l ed</w>
it al</w>
interest ing</w>
in es</w>
exper ience</w>
ex pl
ent al</w>
c lo
belie ve</w>
b or
w hat's</w>
su m
sp ec
se t</w>
s ed</w>
pl ay</w>
pi ec
l ing</w>
l ab
it ing</w>
ide as</w>
hal f</w>
ha vi
fe el</w>
ener gy</w>
e p</w>
d one</w>
cou ple</w>
cont ro
be havi
b ro
as k</w>
al ready</w>
v al
uni ver
t or</w>
st re
sen se</w>
s uc
s ing
qu ite</w>
on d</w>
may be</w>
li ve</w>
ic es</w>
heal th</w>
he ad</w>
h ome</w>
fo c
en e
el s</w>
el ec
com ing</w>
ch all
be st</w>
at h</w>
an ding</w>
al i
2 0
z e</w>
sy st
pic ture</w>
ph ys
lo b
in v
i gh
hi story</w>
happ en</w>
exper im
e st</w>
d r
cel ls</w>
c ir
c ap
ab ility</w>
On e</w>
M o
you n
t es</w>
syst ems</w>
stor ies</w>
sim ple</w>
proble ms</w>
om e
mon ey</w>
mo ve</w>
le ad
environ ment</w>
e duc
e a
an ds</w>
ac k</w>
Wh y</w>
P e
with in</w>
w er
v ity</w>
tr ying</w>
ti onal</w>
t ty</w>
su pp
su b
stu ff</w>
sp ace</w>
sh ed</w>
sa ys</w>
ro bo
m en
le ft</w>
ki ds</w>
in ce</w>
h und
fr on
be au
b er
b a
ate ly</w>
Ear th</w>
A s</w>
A r
' d</w>
w ard</w>
ve l</w>
te ly</w>
sm all</w>
sc i
sa w</w>
pro tec
pre tty</w>
plac es</w>
or i
or d
ne t</w>
ne t
mat eri
li ving</w>
l ater</w>
k en</w>
hu ge</w>
h ar
ge tting</w>
f our</w>
en ing</w>
d ru
coun try</w>
con nec
ch ild</w>
can c
c ri
c are</w>
bo th</w>
tu res</w>
th ers</w>
si ve</w>
shi p</w>
pro f
pa st</w>
p t</w>
o ce
mom ent</w>
m en</w>
li ves</w>
is su
i le</w>
fami ly</w>
d uring</w>
d ro
d es</w>
d ays</w>
ch ar
canc er</w>
bus iness</w>
as ked</w>
an k</w>
an g
a me</w>
a ff
A ll</w>
tur n</w>
thou s
s ity</w>
s h</w>
ol s</w>
m ents</w>
lo gi
in divi
indivi du
hi gh
grou nd</w>
ent ly</w>
en c
do c
d ge</w>
c ra
c am
bo ok</w>
b ad</w>
am oun
ac ti
I' ll</w>
A n
A l
youn g</w>
wor ks</w>
te ach
st ri
sing le</w>
se en</w>
ro ss</w>
re se
pro cess</w>
piec e</w>
p er</w>
organ iz
olu tion</w>
no thing</w>
ma ge</w>
g lob
fo re
f il
e y
d ec
c ity</w>
buil ding</w>
bu ild</w>
I' d</w>
Afric a</w>
won der
with out</w>
wh ile</w>
w as
to ld</w>
sp eci
soci e
s ure</w>
re li
p ho
ous ly</w>
o f
n er</w>
in ed</w>
he art</w>
ha ving</w>
grou p</w>
govern ment</w>
g l
g ir
for m
fi g
f un
f re
f ic
de p
d ol
d en</w>
con f
compu ter</w>
br ing</w>
ap pro
amoun t</w>
a k</w>
Y ou
R e
w at
tr u
ti ci
t un
stud ents</w>
ste ad</w>
st ed</w>
si x</w>
ri s
re mem
po si
or der</w>
om s</w>
o o
o c
mon ths</w>
m illion</w>
i a</w>
hi gh</w>
ge ts</w>
f ol
f ar</w>
every thing</w>
e t
e qu
diff ic
di g
cre ated</w>
cl u
c ha
c ell</w>
buil t</w>
b ur
al e</w>
Th en</w>
In ter
wor ds</w>
vi ew</w>
vi de
v a
tic s</w>
thin king</w>
the y
the m
ta tion</w>
ta king</w>
ta kes</w>
sto p</w>
sp i
sc ience</w>
re aliz
partic ular</w>
our selves</w>
our s</w>
ou se</w>
op en</w>
ma kes</w>
m ach
lo g
li c</w>
le t's</w>
k in
is m</w>
fron t</w>
en ds</w>
en ces</w>
el se</w>
educ ation</w>
e ts</w>
di se
di rec
contro l</w>
com es</w>
cer ta
cep t</w>
bi g
as s</w>
ain st</w>
L i
ye t</w>
vide o</w>
u ro
tur al</w>
t in
star ting</w>
sc ri
res our
reli gi
re g
pro jec
pro gra
plan et</w>
pl ay
p ul
p ly</w>
out side</w>
mo ther</w>
mar k
m il
m ental</w>
le vel</w>
lan gu
it self</w>
it ec
ir d</w>
in no
he ard</w>
happen s</w>
happen ing</w>
g r
ful ly</w>
f -
ex c
diffic ult</w>
de mo
cur r
cul ture</w>
commun ic
col lec
c le
c ar</w>
bi o
b ly</w>
ati onal</w>
at ter
ac y</w>
a ir
O r</w>
G re
z ing</w>
you 'll</w>
wh e
wal k</w>
ver age</w>
univer se</w>
tur ns</w>
thou gh</w>
t ors</w>
t -
stu dy</w>
ste p</w>
sit u
re ality</w>
qu ic
pos ed</w>
or m
mu sic</w>
m ust</w>
m ind</w>
lear ned</w>
j our
incre di
hop e</w>
ha ps</w>
fi el
d ly</w>
cl in
c al
beau ti
at t
ar ch</w>
any thing</w>
ans wer</w>
ag ainst</w>
ad v
ac ross</w>
a ir</w>
U n
S t
A f
was n't</w>
ve ly</w>
v ation</w>
uni ties</w>
them selves</w>
t able</w>
sel f-
s uch</w>
s qu
s po
reas on</w>
ra ther</w>
pu b
p op
p h</w>
of ten</w>
oce an</w>
o ds</w>
nat ure</w>
loo ked</w>
lo ts</w>
k ly</w>
iz e</w>
in k</w>
in f
ic ro
i se</w>
hum an
g ed</w>
en s</w>
deci ded</w>
d -
co st</w>
ch em
c op
bo o
b illion</w>
ap er</w>
ag es</w>
Pe ople</w>
1 00</w>
wor ked</w>
ur al</w>
ti on
sur vi
see ing</w>
ru n</w>
remem ber</w>
pr in
po wer
pho to
per haps</w>
or d</w>
my self</w>
mo lec
min u
lit er
in ning</w>
i ous</w>
i mage</w>
h or
gh ts</w>
g ing</w>
ex t</w>
ex ac
exac tly</w>
er y</w>
eng ine
e arly</w>
e -
d om
d d
d a
c lim
an ts</w>
an c
T E
B e
z ed</w>
you 've</w>
underst anding</w>
und er</w>
ul ation</w>
u r</w>
tur ned</w>
tu al</w>
ten tion</w>
te st</w>
t t
t ou
st ra
sp end</w>
sh are</w>
s our
rel ati
pro vi
ph one</w>
p ur
ne y</w>
n on
mo der
lon ger</w>
lo w
li es</w>
in ation</w>
happen ed</w>
h and</w>
gre en</w>
fig ure</w>
f er
de v
comple tely</w>
co g
chang ed</w>
c ro
behavi or</w>
beg an</w>
arch itec
anim als</w>
a verage</w>
a ma
T o
N ot</w>
In dia</w>
I V</w>
H IV</w>
3 0</w>
wr ong</w>
wonder ful</w>
w le
u p
sur pri
st ate</w>
st an
some times</w>
s or
poli tical</w>
po se</w>
po l
p ing</w>
op port
n am
mo ving</w>
me dia</w>
m al
langu age</w>
l and</w>
k ers</w>
ine se</w>
in du
in ary</w>
he ar</w>
h ours</w>
ge st</w>
ful l</w>
enti al</w>
en ge</w>
du ce</w>
dise ase</w>
d ical</w>
cou ldn't</w>
contin u
c le</w>
beg inning</w>
beauti ful</w>
bas ically</w>
ar ti
S ome</w>
Le t's</w>
1 5</w>
wom an</w>
w n
tr an
the ma
th ro
te ach</w>
t ar
sy m
some body</w>
socie ty</w>
situ ation</w>
si l
sha pe</w>
s ound</w>
resp on
re st</w>
pers on
per i
per f
p es</w>
oun ds</w>
op er
o -
mil es</w>
m er</w>
logi es</w>
loc k</w>
l ars</w>
kno wle
kin ds</w>
imag es</w>
hund red</w>
h er
glob al</w>
g ran
for ce</w>
fin ally</w>
fiel d</w>
f ree</w>
di e</w>
d ers</w>
con ver
chall enge</w>
ch e
b ir
at or</w>
as tic</w>
an ge</w>
We 've</w>
N o
Inter net</w>
H ere</w>
E uro
Ch inese</w>
whe ther</w>
tre at
tr al</w>
tic ally</w>
thous ands</w>
techno logies</w>
ta ken</w>
t ro
su p
star ts</w>
st er</w>
ser v
sci enti
s it</w>
rese arch</w>
re qu
ran ge</w>
r y</w>
p ed</w>
ou ldn't</w>
ob jec
materi al</w>
loo ks</w>
issu e</w>
is n't</w>
ir e</w>
individu al</w>
in i
in a</w>
il ls</w>
i m</w>
i g
he a
h ard</w>
h and
h an
gu y</w>
fun c
f y</w>
f el
f ar
ey es</w>
el ing</w>
econom ic</w>
e vi
e ar
differ ence</w>
de fin
d ar
comp an
clim ate</w>
cal cul
c y
c k</w>
c au
c at
big ger</w>
bec om
b loo
b ene
b ab
as y</w>
as es</w>
are a</w>
ar ed</w>
ac tion</w>
a x
N o</w>
J o
E n
Americ an</w>
y -
war ds</w>
w in
w ar</w>
ul ts</w>
ul arly</w>
ter ms</w>
t or
str y</w>
solu tions</w>
sim il
si ze</w>
sh ing</w>
s on</w>
ris k</w>
res ult</w>
re cog
r ic
quic kly</w>
pre sen
pp ed</w>
pl es</w>
pati ents</w>
par t
pa in
on ce</w>
ni ght</w>
nee ded</w>
moder n</w>
mo de
minu tes</w>
me as
mach ine</w>
ma p</w>
m icro
loc al</w>
li st
lear ning</w>
lead ers</w>
lab or
knowle dge</w>
kno wn</w>
k y</w>
k new</w>
k ay</w>
iz ed</w>
it h</w>
ho sp
happ y</w>
h y
gro w</w>
gener ation</w>
ga ve</w>
g al
foc us</w>
fa ther</w>
f ur
experim ent</w>
ex tre
enti ally</w>
en ding</w>
en 't</w>
em ent</w>
do m</w>
di st
di es</w>
comp any</w>
char ac
ce i
bloo d</w>
b ri
b ers</w>
b ed</w>
b an
at ure</w>
at tention</w>
ar ing</w>
ama zing</w>
a z
S ome
N or
C on
4 0</w>
you r
y 's</w>
vi e
un ch</w>
u es</w>
tri al</w>
tr ue</w>
to ols</w>
ti ce</w>
st at
st ain
sp here</w>
sh ort</w>
se qu
sc en
sa ying</w>
s ou
s ince</w>
robo t</w>
resour ces</w>
re gi
r an</w>
produc t</w>
po t
pl ant</w>
pers onal</w>
ord inary</w>
nee ds</w>
mor al</w>
mode l</w>
mat ter</w>
ma thema
m ing</w>
l ines</w>
ke ep</w>
k er</w>
in stead</w>
imp act</w>
i ther</w>
hum ans</w>
gro wing</w>
gra ph</w>
gi ves</w>
fl u
fi c</w>
f ly</w>
elec tr
e ight</w>
e asy</w>
di men
develop ed</w>
de f
de ath</w>
d ence</w>
comple x</w>
chang es</w>
c ent
bene f
au gh
ar -
al lo
a ke</w>
N ew</w>
H ere's</w>
E ast</w>
B y</w>
20 0
0 s</w>
wh ite</w>
wee k</w>
w el
va il
v ari
ul es</w>
tin y</w>
ti l</w>
th o
tal ity</w>
t om
str on
si a</w>
sc ale</w>
sa ge</w>
s li
s '</w>
relati on
realiz e</w>
pro ject</w>
pres sion</w>
pres ent</w>
pre dic
pati ent</w>
par ts</w>
p le
p ay
or ity</w>
ol ved</w>
o t
o d
ne igh
nat ural</w>
n ational</w>
ma j
m ine</w>
liter ally</w>
lar ge</w>
ke y</w>
jour ney</w>
it u
inno vation</w>
illi ons</w>
ho od</w>
h our</w>
gra ph
gi ven</w>
gen e
for ward</w>
fe et</w>
fa v
ea si
e ly</w>
dol lars</w>
di sa
di ed</w>
de ter
d ra
d ou
contin ue</w>
con di
commun ity</w>
comm unities</w>
clo se</w>
cl as
ci ties</w>
chang ing</w>
chall eng
bo t
an ci
U ni
TE D</w>
M ay
F ran
D i
Ch ina</w>
C o
2 5</w>
z er
wee ks</w>
w ish</w>
un til</w>
un ity</w>
tici p
th re
te m
te am</w>
ta ph
sy n
sur ger
suc cess</w>
su g
st ro
st ars</w>
st age</w>
ss ed</w>
sp read</w>
sp ent</w>
sour ce</w>
some one</w>
sol ve</w>
so on</w>
sim ply</w>
s mar
re cei
ra is
qu ality</w>
pub lic</w>
posi tion</w>
phys ical</w>
ph en
phen om
phenom en
pa in</w>
opport unity</w>
op en
ob vi
o thers</w>
ne ws</w>
n er
mor ning</w>
mi c</w>
lo wer</w>
li sh</w>
le 's</w>
la w</w>
ir st</w>
in c
id enti
i al</w>
ho ld</w>
he ad
gran d
gi c</w>
fri ends</w>
fel t</w>
f ish</w>
ev olution</w>
er ing</w>
enti re</w>
enc y</w>
e d
dru g</w>
disc over
dig ital</w>
de scri
d le</w>
com pe
col le
ch ed</w>
c ut</w>
c li
bec ame</w>
ba sic</w>
as se
aliz ed</w>
al one</w>
a vi
a vail
W or
Th ank</w>
May be</w>
L et</w>
F irst</w>
A t</w>
A c
ye ar-
y ond</w>
wor l
wan ts</w>
w on't</w>
ver sity</w>
v ent</w>
v al</w>
und am
treat ment</w>
tre es</w>
to ol</w>
th y</w>
th ird</w>
tal ked</w>
sur face</w>
su stain
su al</w>
spec ies</w>
spe ed</w>
spe a
sist ance</w>
sho ws</w>
see m</w>
se ver
se ven</w>
recog n
re v
re duc
re ds</w>
r ate</w>
ques tions</w>
produc ts</w>
pro duce</w>
por t</w>
pop ulation</w>
po or</w>
partic ularly</w>
p tion</w>
p atter
ou ght</w>
op tim
non -
n uc
n orm
n ine</w>
mo vi
mo d
me dical</w>
mark et</w>
m es
m ed</w>
log ical</w>
lic t</w>
li ar</w>
lea st</w>
le ar</w>
ke pt</w>
it es</w>
interest ed</w>
in ly</w>
in clu
imag ine</w>
ill ing</w>
i sts</w>
he 's</w>
h ind</w>
gu ys</w>
gi ving</w>
gene tic</w>
g le</w>
g in
g am
fri end</w>
fe eling</w>
f ra
f as
exp lo
ex tra
er a</w>
environ mental</w>
en ded</w>
em p
ec o
e p
e mo
di ence</w>
de al</w>
conf lict</w>
compan ies</w>
cent ur
can not</w>
c lear
bre a
bo ard</w>
beg in</w>
be yond</w>
bas ed</w>
bab y</w>
b ar
b al
avail able</w>
au th
architec ture</w>
ar en't</w>
ap pe
ab o
a w
You 're</w>
W ith</w>
Mo st</w>
H e's</w>
G od</w>
Afric an</w>
your self</w>
w ouldn't</w>
w ind</w>
vo ice</w>
vi ol
ve ment</w>
val ue</w>
us h</w>
u res</w>
tra in</w>
ter n
ter m</w>
tel ling</w>
t on
t an
surger y</w>
supp ort</w>
sup posed</w>
su ff
sti tu
st ore</w>
st e</w>
st and</w>
sit ting</w>
simil ar</w>
se a</w>
sc op
s si
s ite</w>
rou ght</w>
robo ts</w>
ro oms</w>
reas ons</w>
read ing</w>
re presen
re f
pro to
prin ci
pr ice</w>
plan ets</w>
pic k</w>
pe op
pe ace</w>
p aper</w>
ol der</w>
o x
num bers</w>
ne ar</w>
me taph
man i
lo st</w>
lic ations</w>
lic ated</w>
lea se</w>
lab or</w>
la ge</w>
l y
j u
is tic</w>
incredi bly</w>
in ve
in tel
in ing</w>
ill ed</w>
i st</w>
gir l</w>
gal ax
fur ther</w>
for tun
fil m</w>
fe ar</w>
fav or
f undam
expl or
er ed</w>
econom y</w>
ec ted</w>
e ither</w>
e f</w>
e at</w>
dri ve</w>
develop ment</w>
desig ned</w>
demo cr
de m
de ed</w>
d ent</w>
d en
connec ted</w>
con v
compu ters</w>
communic ate</w>
comm on</w>
co ver
cen tral</w>
c ars</w>
bl ue</w>
bac k
any one</w>
anim al</w>
an al
aff ord</w>
ac i
ac cess</w>
ac c
W hat's</w>
T w
T o</w>
M e
L o
J ust</w>
J ap
I s
G o
E very
C an
B o
2 00</w>
year- old</w>
wr it
w ro
wro te</w>
w in</w>
w ers</w>
v il
v ate</w>
ur b
u le</w>
tri ed</w>
tr ust</w>
to wards</w>
to m</w>
t op
t on</w>
t ent</w>
t al</w>
survi ve</w>
struc ture</w>
ster n</w>
sho wn</w>
ser ious</w>
secon ds</w>
sec re
scienti sts</w>
s we
s le
ri ed</w>
res ults</w>
religi on</w>
r ich</w>
qu e</w>
progra m</w>
produc tion</w>
pro ve</w>
power ful</w>
pot ential</w>
po lic
po in
p y</w>
p pe
on to</w>
on line</w>
ob s</w>
o re
o il</w>
ni fic
net works</w>
net work</w>
n u
n ame</w>
mis sion</w>
me di
me an
materi als</w>
mag az
m ul
li shed</w>
li gh
le v
le g
le ad</w>
j obs</w>
issu es</w>
indu stri
i li
hund reds</w>
h om
h ere's</w>
ga me</w>
fi ed</w>
fe wer</w>
fa il
f low</w>
f lo
exp ect</w>
ev ening</w>
es ti
eff ec
e e</w>
dru gs</w>
disc over</w>
di o</w>
democr acy</w>
deci de</w>
de e
d in
d an
d a</w>
coun t</w>
con si
con cept</w>
col labor
cho ices</w>
ch ing</w>
certa inly</w>
certa in</w>
c k
c ess
bot tom</w>
bl ack</w>
b rought</w>
b le
b it
au dience</w>
at s</w>
appro ach</w>
al th</w>
al ong</w>
al low</w>
ad ap
ac e
ab solu
Wh o</w>
P o
O h</w>
Nor th</w>
I s</w>
H a
Euro pe</w>
En g
E ven</w>
Americ a</w>
wr iting</w>
wr ite</w>
who 's</w>
we 'll</w>
wal king</w>
ven 't</w>
u ght</w>
ty pe</w>
tri c</w>
to wn</w>
ti vely</w>
ti s
they 've</w>
ther e
t end</w>
str ate
str ange</w>
stan tly</w>
st ati
st a
st -
squ are</w>
speci al</w>
sor ts</w>
si onal</w>
si des</w>
se par
sc re
sa ve</w>
sa tion</w>
s on
s ent</w>
ro w</w>
resp ond</w>
requ i
rec or
re mo
re ma
r un
qu o
pos si
pol l
pic tures</w>
peri od</w>
peop le's</w>
par ticip
pa ge</w>
p hi
op h
objec ts</w>
ob ject</w>
ne ur
mul ti
mor tality</w>
mo thers</w>
mo m</w>
mes sage</w>
m illions</w>
lim ited</w>
li ke
la w
l ate</w>
l -
jo b</w>
incredi ble</w>
in st
ig n</w>
ho l
high -
happ iness</w>
ha ven't</w>
h ouse</w>
gl ass</w>
g one</w>
g -
fo ot
fami liar</w>
f all</w>
extra ordinary</w>
exc iting</w>
ex cep
evi dence</w>
every where</w>
en sive</w>
eff ici
eff ect</w>
e ating</w>
dre am</w>
discover ed</w>
develop ing</w>
develo p</w>
dep end
dar k</w>
d ness</w>
cover ed</w>
cont ent</w>
condi tions</w>
con sci
con cer
ch i
c la
bu y</w>
bor n</w>
boo ks</w>
bo x</w>
belie f</w>
becom es</w>
be hind</w>
bac ter
b its</w>
b atter
att ac
ate st</w>
at ory</w>
at ors</w>
are as</w>
an i
al tern
al ing</w>
ag ing</w>
ac cur
ab les</w>
a ds</w>
Wor ld</w>
Wh ere</w>
Un ited</w>
Th ink</w>
S u
S h
O ur</w>
I mag
G er
E very</w>
D o</w>
C ar
9 0</w>
19 8
19 6
1 2</w>
z en</w>
y ed</w>
worl d
won der</w>
w th</w>
w ine</w>
vil lage</w>
vi sible</w>
ver sion</w>
ve ge
us es</w>
ul tural</w>
tru th</w>
tri bu
tran sp
tra di
tion ary</w>
ti vity</w>
thous and</w>
they 'll</w>
the ory</w>
ter ri
ter ed</w>
ta ught</w>
ta in</w>
surpri sing</w>
suc cess
struc tion</w>
stron ger</w>
stre ets</w>
st ly</w>
st ay</w>
sp ir
solu tion</w>
smar t</w>
sig nific
sho es</w>
sever al</w>
se ems</w>
se em
seem ed</w>
s al
ri d</w>
respon se</w>
relation ship</w>
ref lec
re ach
ra ise</w>
pu tting</w>
projec ts</w>
pre vent</w>
pre par
pre ci
plan ts</w>
ph ins</w>
person ally</w>
pas sed</w>
p en
p ay</w>
ox y
oun d
ou th</w>
organiz ed</w>
op s</w>
on e-
ol ves</w>
ob ser
nuc lear</w>
no ther</w>
neigh bor
nam ed</w>
n or
n ar
mod els</w>
min ist
mi se</w>
metaph or</w>
me ly</w>
me dic
lon g-
like ly</w>
li ved</w>
li fe
lea ve</w>
l and
jo y</w>
itu al</w>
ist an</w>
individu als</w>
in flu
il s</w>
i an</w>
high er</w>
gu ess</w>
gu e</w>
ger ous</w>
gener ations</w>
ga p</w>
g es</w>
g ence</w>
g ar
fu n</w>
fortun ately</w>
for ms</w>
for get</w>
fol low</w>
fol lo
foc used</w>
extre mely</w>
experim ents</w>
exam ples</w>
ex tr
ess entially</w>
em er
e ding</w>
do wn
do or</w>
direc tly</w>
dev ices</w>
deci sions</w>
de ta
de ep</w>
de ad</w>
dan gerous</w>
curr ent</w>
con sum
com par
com b
chan ce</w>
challeng es</w>
cen ter</w>
car e
car b
c ru
c in
bre ak</w>
br and</w>
bio logy</w>
bacter ia</w>
b y
b unch</w>
b ran
b all</w>
at ures</w>
as p
ari a</w>
anc ed</w>
an t
am s</w>
aliz ation</w>
ag ric
ag ed</w>
ac tive</w>
We st</w>
W i
W ar</w>
To day</w>
Th ose</w>
S econ
O n</w>
M ars</w>
M ar
M a
Jap an</w>
Imag ine</w>
H o
Eng lish</w>
Ch ar
C en
C A</w>
Af ter</w>
Af gh
A u
A nother</w>
3 00</w>
1 1</w>
’ s</w>
writ ten</w>
world 's</w>
wor kers</w>
wor d</w>
we b
w o
w ha
ver se</w>
val ues</w>
ty pes</w>
tur ning</w>
tre at</w>
there fore</w>
tel ls</w>
teach ers</w>
teach er</w>
t ten</w>
t ext</w>
supp or
sum mer</w>
su sp
stre et</w>
stra ight</w>
str um
str ated</w>
st om
st and
ss es</w>
son gs</w>
sol ar</w>
sm all
sk in</w>
sk ills</w>
sho wed</w>
shi ps</w>
sh es</w>
se x</w>
se x
se um</w>
sa fe</w>
s tic
s ounds</w>
s oph
s mo
s is</w>
s at</w>
ru le</w>
rou gh
ro l
ri ghts</w>
rev olution</w>
realiz ed</w>
re sistance</w>
re pr
repr ene
re ment</w>
re ly</w>
ra ge</w>
r ing</w>
r a</w>
quo te</w>
provi de</w>
progra ms</w>
prof es
pro gre
princi ple</w>
pre ss</w>
pre ss
posi tive</w>
polic y</w>
play ing</w>
pl astic</w>
photo graph</w>
perf ect</w>
perf ec
pas s</w>
pain ting</w>
p li
p lease</w>
p ath</w>
p al
obvi ously</w>
o es</w>
norm al</w>
neur ons</w>
ne w
n ers</w>
n a
mu sc
molec ule</w>
mo vement</w>
mo ved</w>
min ds</w>
mi le</w>
me t</w>
me mor
me et</w>
mar ke
magaz ine</w>
m oun
m a</w>
list en</w>
lea ds</w>
lar ge
la b</w>
is ol
inve st
incre ase</w>
incre as
in strum
il ing</w>
identi fy</w>
id dle</w>
ici al</w>
ic k</w>
i tion</w>
i ly</w>
human ity</w>
ho le</w>
he at</w>
h un
grou ps</w>
gro wth</w>
gre atest</w>
go tten</w>
gir ls</w>
gh ting</w>
func tion</w>
fre e
fi gu
f er</w>
f ant
explor ing</w>
expl ain
every body</w>
ev en
er ci
ent reprene
eng age</w>
en ni
en ly</w>
em ents</w>
easi er</w>
ear li
ea h</w>
e th</w>
dro p</w>
do g</w>
disc us
disa ppe
dev ice</w>
dec ad
decad es</w>
de sp
de li
cul tures</w>
cro w
cre ative</w>
con tr
comp licated</w>
comp as
compas sion</w>
collec tive</w>
cl ass</w>
cir cul
ci vi
cho ice</w>
chem ical</w>
char ge</w>
ch es</w>
ch ec
centur y</w>
carb on</w>
calcul ate</w>
c ed</w>
bir th</w>
behavi ors</w>
b ul
b lo
b ility</w>
asse m
ans wers</w>
an istan</w>
altern ative</w>
ad a</w>
acti vi
accur ate</w>
ac hi
abo ve</w>
Y our</w>
Y eah</w>
The y
St ates</w>
S i
S A</w>
P ro
O kay</w>
M us
M iddle</w>
L augh
In stead</w>
Gre at</w>
F ro
F i
D id</w>
C om
C an</w>
B r
Afgh anistan</w>
7 0</w>
. .</w>
. ..</w>
z z
x es</w>
wor th</w>
wor se</w>
wh ist
we ight</w>
we 'd</w>
war en
vo id</w>
viol ence</w>
vi sion</w>
ve -
urb an</w>
uni que</w>
ul tim
u te</w>
tw o-
tu m
tt on</w>
tra ining</w>
tr ou
tou ch</w>
to c
toc in</w>
th -
tec h</w>
te ver</w>
te eth</w>
ta tions</w>
t ory</w>
sustain able</w>
su per
stud ent</w>
str ong</w>
stat us</w>
spo ke</w>
spi der</w>
spe ak</w>
so f
sli de</w>
si on
sho ot</w>
sh e's</w>
scho ols</w>
sc ap
s y</w>
s la
rou n
rese arch
res h</w>
remo te</w>
regi on</w>
recogn ize</w>
rec t</w>
re turn</w>
rais ed</w>
ra tion</w>
ra in
protec tion</w>
projec tion</w>
pro te
pro per
pro p
pro mise</w>
pr acti
pp ing</w>
pl an</w>
phys ics</w>
phenomen on</w>
per form
pay ing</w>
patter n</w>
p an
oxy tocin</w>
ous ness</w>
ou d</w>
or k</w>
oo gle</w>
off ice</w>
off er</w>
o ther
o kay</w>
no tice</w>
no tic
no ise</w>
nec ess
ne l</w>
n ice</w>
n al</w>
musc le</w>
mu sh
mom ents</w>
min d
meas ure</w>
me ter</w>
me at</w>
mal aria</w>
maj or</w>
ma m
ma gic</w>
lo ss</w>
lead er</w>
le t
le gs</w>
law y
l ay
it ation</w>
ir s</w>
inv esti
investi g
inter national</w>
inf ec
indu stry</w>
in spi
in deed</w>
in come</w>
im medi
i shed</w>
hosp ital</w>
hosp it
ha s
h on
graph y</w>
go al</w>
g y
fundam ental</w>
fo ssi
fo ot</w>
fir e</w>
fic ation</w>
fe ed</w>
favor ite</w>
fas cin
fam ous</w>
fac es</w>
f ine</w>
expl ain</w>
exper i
exp ensive</w>
ex ten
es p
engine er</w>
dom in
dimen sions</w>
differ ences</w>
de ser
dd enly</w>
d y's</w>
d ding</w>
d ance</w>
cu stom
cre ati
creati vity</w>
cor ner</w>
conver sation</w>
cont ext</w>
con ta
compe ti
comp on
communic ation</w>
co ol</w>
clin ic</w>
cle ar</w>
cap ital</w>
cam era</w>
c ause</w>
bro ther</w>
bre ast</w>
bo dy's</w>
bo at</w>
bl ing</w>
benef it</w>
beau ty</w>
batter y</w>
b ought</w>
b lock</w>
avi d</w>
at mo
as soci
ari an</w>
app lications</w>
an a</w>
am ong</w>
al g
adv anced</w>
ad ver
ad d</w>
ac k
absolu tely</w>
a id</w>
a head</w>
Y ork</w>
W ould</w>
W ill</w>
V ery</w>
T V</w>
S ince</w>
P ar
P al
O ther</w>
O f</w>
M any</w>
K ore
Jo h
J e
G oogle</w>
D e
D avid</w>
Al so</w>
A sia</w>
A n</w>
6 0</w>
2 4</w>
1 6</w>
- year-old</w>
( Laugh
’ re</w>
you 'd</w>
ye ster
y es</w>
y el
wi se</w>
who 've</w>
wha tever</w>
wel l-
we ap
we a
wal ked</w>
wa ste</w>
vie ws</w>
vi sual</w>
ver ty</w>
ven tion</w>
ve h
veh ic
v olu
volu me</w>
v ol
v ic
up on</w>
ul ous</w>
uc k</w>
u g
u e
tur ing</w>
tru ly</w>
ti ves</w>
ti li
throu gh
th 's</w>
terri ble</w>
te a</w>
t ree</w>
t ch</w>
t ask</w>
syn the
sym bo
swe et</w>
sur ve
struc tures</w>
str eng
stand ard</w>
stan ces</w>
st y
st ers</w>
spea king</w>
so li
small er</w>
sk y</w>
sist er</w>
sil ent</w>
si ght</w>
sho ts</w>
shi ft</w>
sh ou
shou l
sh or
sec ure</w>
scap e</w>
s un
s per
s ong</w>
s end</w>
s at
sat el
satel lit
satellit e</w>
ri se</w>
resp ect</w>
resour ce</w>
rel ated</w>
reg ular</w>
rec ently</w>
reas on
re mark
re al
re ach</w>
re -
ra pi
r ules</w>
r itual</w>
pur pose</w>
protec ted</w>
protec t</w>
prof ess
produc tive</w>
pro ce
press ure</w>
pr int</w>
pp le</w>
pp er</w>
poin ts</w>
po verty</w>
piec es</w>
phys ici
phi c</w>
perfec tly</w>
par ty</w>
par ents</w>
pa irs</w>
pa ir</w>
p ush</w>
p at
ori th
ori gin
open ed</w>
on ed</w>
oc cu
no body</w>
ni a</w>
n ur
n ect</w>
movi e</w>
moun ta
molec ules</w>
me ant</w>
mat h</w>
mani pul
maj ority</w>
ma ss</w>
m un
m ouse</w>
m ent
m el
ly m
low ers</w>
low -
loc ks</w>
lo se</w>
lic k</w>
li ber
le ss
lar ger</w>
land scape</w>
lan ds</w>
l ect</w>
kno ws</w>
k illed</w>
k id</w>
j a
iz ation</w>
is ms</w>
ini ti
ing ly</w>
industri al</w>
in tu
in stitu
in dic
in depend
immedi ately</w>
imag ination</w>
i stry</w>
i er</w>
hor se</w>
hel ped</w>
hea ds</w>
he aring</w>
has n't</w>
ha n</w>
h it</w>
h all
gu ar
gre ater</w>
go ld</w>
ge ment</w>
gam es</w>
galax y</w>
g ers</w>
g en</w>
free dom</w>
fore st</w>
for ces</w>
fi le</w>
fi ghting</w>
fe atures</w>
fant astic</w>
fa st</w>
f ru
f resh</w>
f our
f ab
ey e</w>
exp ec
ex plan
ex ist
every one</w>
every day</w>
even tually</w>
ev olved</w>
en orm
en 's</w>
elec tric</w>
effici ent</w>
ec han
e m</w>
e br
du e</w>
dol phins</w>
doc tr
do w</w>
deter min
dee ply</w>
de st</w>
de mon
de b
de a
d hood</w>
d ay
cul tural</w>
cri tical</w>
cre ates</w>
cr y
cop e</w>
contro l
con stantly</w>
con nect</w>
con fi
comple te</w>
com for
colle ge</w>
colle ag
collabor ation</w>
co sts</w>
co de</w>
clin ics</w>
cle an</w>
clas s
cir cu
cir cle</w>
chil dhood</w>
chem istry</w>
charac ter
c um
c lock</w>
bu b
bo y</w>
bo dies</w>
bl ind</w>
bi tion</w>
bi le</w>
becom ing</w>
be ef</w>
be d
be ar</w>
bas is</w>
bal ance</w>
b es</w>
attac ks</w>
at tr
as king</w>
arti st</w>
ar ter
ar g
any way</w>
any body</w>
an n
alg orith
ag ree</w>
ad y</w>
aci fic</w>
a st
a de</w>
You 've</w>
Y et</w>
V i
Uni versity</w>
They 've</w>
T i
T ake</w>
S we
S tu
S outh</w>
R us
R o
P acific</w>
P a
N i
N e
N A</w>
Li ke</w>
L in
H er</w>
H e
G e
Fro m</w>
Euro pe
Char les</w>
Can ada</w>
C ity</w>
B i
Americ ans</w>
A t
A ra
5 00</w>
200 7</w>
1 8</w>
z y</w>
yester day</w>
y l
y cle</w>
win dow</w>
who m</w>
wh ose</w>
web site</w>
we ar</w>
we alth</w>
wat ch</w>
waren ess</w>
war ming</w>
wa iting</w>
w on</w>
w illing</w>
vo c
vir us</w>
vege t
vari ous</w>
v y</w>
v or</w>
v ast</w>
univer sity</w>
um ps</w>
ul ty</w>
ul ture</w>
ul tra
u su
usu ally</w>
tw are</w>
tu red</w>
tri ang
trans l
tradi tional</w>
tra ined</w>
tra de</w>
tr ack</w>
tic ated</w>
through out</w>
thin ks</w>
ter )</w>
tel es
teach ing</w>
te l</w>
tan e
t ac
t a</w>
sy ste
syste ma
surpri se</w>
sur ge
sug ge
success ful</w>
sub jec
su e</w>
sty le</w>
stu dies</w>
st one</w>
st ing</w>
st ation</w>
st anding</w>
st air
spo t</w>
sp her
sp aper</w>
sou th</w>
sof tware</w>
socie ties</w>
so ld</w>
sil ence</w>
sig n</w>
si tion</w>
sho t</w>
sh e
sequ ences</w>
sequ ence</w>
sen s
sec ts</w>
se tt
se ly</w>
scen e</w>
sc ar
s w
s ons</w>
s k</w>
s er</w>
s ell</w>
run ning</w>
rough ly</w>
ro py</w>
ro le</w>
ro ad</w>
ri d
religi ous</w>
re si
re fu
re d
rapi dly</w>
quic k</w>
pul l</w>
prote in</w>
progre ss</w>
profess or</w>
produc ed</w>
pro mo
pro mis
pri vate</w>
pri m
pres ents</w>
predic t</w>
pre fer</w>
practi ce</w>
poli ce</w>
ple as
play ed</w>
perform ance</w>
per sist
pas sion</w>
part ment</w>
p en</w>
organiz ations</w>
organiz ation</w>
organ isms</w>
or ies</w>
or al</w>
on ic</w>
om y</w>
oce ans</w>
o wn
o s</w>
nar ra
mu seum</w>
movi es</w>
mo ves</w>
mo stly</w>
minist er</w>
mi dd
mean ing</w>
me ters</w>
mach ines</w>
ma in
ma il</w>
m it</w>
m ir
low ly</w>
long- term</w>
logi sts</w>
lo ws</w>
lo ved</w>
lo ad</w>
lev els</w>
large ly</w>
lar gest</w>
l un
l uc
l er</w>
l am
ki d
k ill</w>
ju d
j un
is sions</w>
inv olves</w>
inv olved</w>
inter est</w>
intel li
inno v
inclu ding</w>
im s</w>
im prove</w>
im mun
il ed</w>
hop ing</w>
ho les</w>
heal thy</w>
he ar
he 'd</w>
ha m
h ands</w>
gra phic</w>
gra du
gener al</w>
g ation</w>
fossi l</w>
form ed</w>
fore ver</w>
follo wing</w>
foc using</w>
fin ished</w>
fin al</w>
fi ve-
fi shing</w>
ff ee</w>
fascin ating</w>
fail ure</w>
fac tory</w>
fac ial</w>
fa ir
f lowers</w>
f light</w>
f la
f it</w>
f all
extr a</w>
expl ore</w>
ex tent</w>
ex pression</w>
ex ists</w>
ex ist</w>
ex hi
ex cept</w>
et c</w>
est ab
er t</w>
er e
er al</w>
er 's</w>
ep ide
ent ropy</w>
enorm ous</w>
engine ered</w>
enc ed</w>
en ting</w>
en ed</w>
em issions</w>
em br
el ed</w>
econom ics</w>
earli er</w>
e ve</w>
e th
e sts</w>
e pi
dre ss</w>
dom es
doc tors</w>
doc tor</w>
dist inc
direc t</w>
din ner</w>
dimen sional</w>
di versity</w>
di an</w>
descri be</w>
deb ate</w>
de stro
day 's</w>
da ily</w>
d ying</w>
d y
d res
d augh
d ating</w>
d ate</w>
cri me</w>
cor rid
cor rect</w>
contr ary</w>
continu ed</w>
consci ousness</w>
connec tion</w>
competi tion</w>
collec tion</w>
col or</w>
col lect</w>
co s
co ffee</w>
clo sed</w>
clin ical</w>
clear ly</w>
cl es</w>
cir cum
charac ter</w>
cha se</w>
cep tion</w>
cel ebr
cau ght</w>
cam p</w>
c ard</w>
bu tton</w>
bo ys</w>
bo xes</w>
bir ds</w>
big gest</w>
beli ev
be ings</w>
bac ks</w>
b ound</w>
b on
b om
b ing</w>
b el
b ase</w>
b a</w>
au tom
au d
ati ves</w>
at oms</w>
at en</w>
as ks</w>
as h</w>
architec tural</w>
ar es</w>
app ar
any where</w>
any more</w>
anci ent</w>
an tly</w>
allo wed</w>
agric ultural</w>
af ter
acti vity</w>
ac ted</w>
ac es</w>
ac cep
ab sor
ab ili
a uc
a de
Y es</w>
We b</w>
Tw o</w>
T ur
T al
Swe den</w>
Some times</w>
S und
S o
S e
S an</w>
R i
Pro ject</w>
Pal est
O 2</w>
M u
M on
Kore a</w>
Joh n</w>
I ra
H is</w>
Gre en
Ge or
E ach</w>
D NA</w>
C O2</w>
B ro
Ara b</w>
A re</w>
9 5</w>
8 0</w>
5 0
3 D</w>
19 7
1 8
1 50</w>
(Laugh ter)</w>
z ens</w>
yel low</w>
x ed</w>
wor st</w>
wor ried</w>
wor k
wo od</w>
whist le</w>
we ver</w>
we st</w>
we ird</w>
wat ching</w>
wa ve</w>
w oo
w all</w>
vir tual</w>
vi sit</w>
ver s</w>
v es
us ti
us ers</w>
ur ity</w>
under ground</w>
un less</w>
ultim ately</w>
u se
u pper</w>
ty p
tom or
tomor row</w>
to i
to -
ti sing</w>
ti red</w>
thro w</w>
ther n</w>
th i
th ank</w>
tar gets</w>
tane ously</w>
ta p</w>
ta g
t ons</w>
t asks</w>
t ally</w>
syn ap
survi val</w>
surge on</w>
sur roun
supp ly</w>
suc ce
su spec
su m</w>
su ddenly</w>
stu p
stre ss</w>
stre am</w>
str ug
sto od</w>
ste in</w>
stati s
stati c</w>
st an</w>
st able</w>
sp ending</w>
soph is
sophis ticated</w>
some how</w>
so ft</w>
sk el
skel et
sig ns</w>
shoul ders</w>
sho wing</w>
sha pes</w>
sh el
sh aring</w>
sh ared</w>
sh all</w>
serv ices</w>
secre t</w>
se ts</w>
se s
se arch</w>
scre en</w>
scop e</w>
sc ared</w>
s ul
s tim
s lowly</w>
s ke
s al</w>
s -
rou nd</w>
ro of</w>
ro ck</w>
ro c
ri c</w>
requi red</w>
remark able</w>
religi ons</w>
relation ships</w>
reduc ed</w>
recor ding</w>
recei ved</w>
re presents</w>
re port</w>
re por
re gre
re fer
re duce</w>
re cep
re ac
ran dom</w>
rais ing</w>
ra w</w>
ra tional</w>
ra id</w>
r ural</w>
r in
r en
qu i
proce d
proced ure</w>
pro found</w>
preci ous</w>
pre -
pr ac
power ed</w>
possi bly</w>
pop ular</w>
poli o</w>
po o
play ers</w>
plan ning</w>
pl us</w>
pl ays</w>
pic s</w>
pic ally</w>
peri ods</w>
patter ns</w>
partic les</w>
partic le</w>
part ner
p tions</w>
p sy
p ounds</w>
p ages</w>
ound ation</w>
opport unities</w>
op ening</w>
on y</w>
olu tionary</w>
obvi ous</w>
o th</w>
no te</w>
ni ghts</w>
new spaper</w>
neighbor ho
neighborho ods</w>
neigh b
necess ary</w>
ne ts</w>
nam es</w>
n y</w>
n one</w>
my ster
mounta ins</w>
molec ular</w>
mo ti
mi x</w>
me et
meet ings</w>
me als</w>
mathema tical</w>
mat ters</w>
man u
man aged</w>
mam mo
mal es</w>
m ou
m im
m ers</w>
m end
m echan
m ale</w>
luc ky</w>
list ening</w>
liber al</w>
li z
li st</w>
li qu
lec tual</w>
lea ving</w>
le y</w>
le ts</w>
le -
la p
ki stan</w>
k ills</w>
k a</w>
itu de</w>
it ted</w>
is land</w>
inter ests</w>
intel lectual</w>
instrum ents</w>
inspi ration</w>
ing ton</w>
influ ence</w>
in tro
in ten
in struc
in sects</w>
in jec
in -
imp an
impan z
im possible</w>
im plant</w>
im es</w>
igh t
ic ycle</w>
ic o</w>
ic ity</w>
ic als</w>
ic ago</w>
i ed</w>
i de</w>
human -
hospit als</w>
hor iz
hop e
heal th
har m</w>
happ ier</w>
ha te</w>
ha bit
gre w</w>
graph s</w>
gr ay</w>
govern ments</w>
gir l
gi le</w>
gi ant</w>
gen u
ge o
galax ies</w>
g un
g ment</w>
g ent</w>
g ent
ful f
fro zen</w>
fri end
fre qu
fra gile</w>
fore ign</w>
for ced</w>
fl ying</w>
fil ters</w>
fi x</w>
fair ly</w>
fac ing</w>
f ted</w>
f s</w>
f lies</w>
f le
f its</w>
f ically</w>
explan ation</w>
exper ts</w>
exp anding</w>
exhi bition</w>
ex ico</w>
ex erci
exerci se</w>
es tim
es sible</w>
er ence</w>
er -
equ al</w>
ent ary</w>
en ab
emp lo
emo tions</w>
emer ging</w>
em ber</w>
electr ical</w>
el ements</w>
ec u
easi ly</w>
e ty</w>
e se</w>
e li
e g
e ast</w>
dro ps</w>
dri ving</w>
dri ver</w>
dre ams</w>
dr one</w>
divi de</w>
dise ases</w>
di tion</w>
deter mine</w>
desp ite</w>
deser t</w>
dep ends</w>
defin ition</w>
def ine</w>
deci sion</w>
dec ade</w>
de struction</w>
de st
de pression</w>
d or
d less</w>
cy cle</w>
cur ve</w>
cri min
cre ating</w>
cra zy</w>
cra tic</w>
cra ft</w>
coun ter</w>
conv ince</w>
consi der
concer ns</w>
con clu
colleag ues</w>
co oper
co -
cla ims</w>
cla im</w>
civi l</w>
ci es</w>
cho ose</w>
chem icals</w>
chec k</w>
cha in</w>
ch impanz
cau ses</w>
call s</w>
ca ve</w>
c ure</w>
c ore</w>
c ing</w>
c es
bro ken</w>
br ings</w>
bor ing</w>
bo w</w>
bl in
benef its</w>
behavi oral</w>
beg ins</w>
be at</w>
ba se
b us</w>
b s</w>
b o</w>
b les</w>
b icycle</w>
b ar</w>
aw are</w>
auth ority</w>
atmo sphere</w>
arter y</w>
ari ly</w>
are ly</w>
ar tic
appro ach
appe ar</w>
anci al</w>
anal o
an ti
an thro
an ce
aliz ing</w>
ali ve</w>
ag s</w>
ag re
aff ect</w>
af raid</w>
adver tising</w>
ad op
acc essible</w>
ac ting</w>
ac cept</w>
absor bed</w>
ab use</w>
a wareness</w>
a void</w>
a stern</w>
Wi th
Wh ich</w>
We stern</w>
W om
T or
S ci
Rus sia</w>
O K</w>
N ever</w>
Mus li
M icro
M exico</w>
M c
Lo ok</w>
K en
Is ra
Ira q</w>
I I</w>
H ouse</w>
Geor ge</w>
G han
Fran ce</w>
F l
F in
Every thing</w>
E gy
E astern</w>
Ch icago</w>
C old</w>
C ol
C am
B u
B ri
B ra
B ab
Ar ch
Ac tually</w>
A pple</w>
A g
4 00</w>
20 10</w>
1 4</w>
- like</w>
’ t</w>
zer o</w>
ys se
ye ast</w>
y right</w>
y ma
y a</w>
x ity</w>
wor ker</w>
wonder ing</w>
wom en's</w>
win ter</w>
wi fe</w>
wh el
wer ing</w>
wat er
wa ke</w>
vol un
volun te
volunte ers</w>
vo ices</w>
vie wed</w>
vi su
vi o
vio let</w>
vi a</w>
v ill
v acc
ur ation</w>
un it</w>
un fortunately</w>
um p</w>
um in
um ent</w>
ultra violet</w>
ul l</w>
ul ating</w>
u tili
u t
u sual</w>
u re
ty pically</w>
tw ice</w>
tu de</w>
trou ble</w>
tribu te</w>
tri p</w>
tre mend
tre ated</w>
transp ar
transl ated</w>
trans form</w>
tra ff
tou ched</w>
tor 's</w>
ton ight</w>
to x
to tally</w>
to tal</w>
tion ally</w>
tici ans</w>
tici an</w>
ti rement</w>
thro wing</w>
thre e-
thre at
tho logy</w>
ther ap
therap y</w>
th ur</w>
th r
th ir
tem per
teles cope</w>
tel evi
televi sion</w>
tech ni
tech n
ta pe</w>
ta ge</w>
ta g</w>
t an</w>
surve ill
surveill ance</w>
sug gest</w>
suff ici
su s</w>
su n</w>
su it</w>
stud ying</w>
stu dio</w>
stri bu
strate gic</w>
str ic
str ate</w>
stim ul
stic k</w>
sti g
ster o
stat ement</w>
st ating</w>
st ates</w>
speci fic</w>
spec tr
spec tive</w>
spe ec
speec h</w>
sou p</w>
soli d</w>
sla very</w>
skelet al</w>
situ ations</w>
sist ers</w>
sim ul
sim pli
signific ant</w>
signific ance</w>
sig mo
sigmo id
sigmoid al</w>
si re</w>
si de
sho p</w>
sho ck</w>
sex u
serv ice</w>
separ ate</w>
sel s</w>
sel ec
secre ts</w>
sec urity</w>
sec tor</w>
se ssed</w>
se l</w>
se a
scen es</w>
sc ary</w>
s oun
s ent
s ac
rou gh</w>
ro t
ro r</w>
ro man
roman tic</w>
ris ks</w>
ri ver</w>
ri gh
research ers</w>
res on
represen ted</w>
represen tation</w>
rema in</w>
relati vely</w>
regi me</w>
reg ar
reduc tion</w>
recogn ized</w>
reason able</w>
re ven
re ve
re tirement</w>
re plac
re fri
refri ger
re cent</w>
re build</w>
ra in</w>
ra dio</w>
ra dic
pub lished</w>
pu shing</w>
proper ty</w>
prop ag
profes sional</w>
prof it</w>
prepar ed</w>
poli tics</w>
po p</w>
po le</w>
plan e</w>
pl ate</w>
pi gs</w>
photo s</w>
photo graphs</w>
ph ar
phar m
person ality</w>
per spective</w>
per ception</w>
pas sing</w>
particip ants</w>
par ent</w>
pain ful</w>
pa thy</w>
pa id</w>
p ure</w>
p ra
p el
over whel
ous es</w>
origin al</w>
ori ties</w>
organ ic</w>
org an</w>
ord ers</w>
or ts</w>
or ange</w>
optim istic</w>
on d
on 's</w>
ome ters</w>
om o</w>
ol dest</w>
occu r</w>
oc curr
oc cur
ob sessed</w>
o very</w>
o be
nu tri
notic ed</w>
ni tion</w>
nec k</w>
ne uro
narra tives</w>
n ation</w>
mush rooms</w>
multi ple</w>
mou ths</w>
mon th</w>
mo tion</w>
mo di
mo bile</w>
mis sing</w>
minu te</w>
mim ic</w>
mil it
midd le</w>
micro bes</w>
mem ber</w>
me tal</w>
me e
mee ting</w>
mathema tics</w>
mat ch</w>
marke ts</w>
mar ried</w>
mani fe
man a
ma tic</w>
ma sters</w>
ma in</w>
m on</w>
m es</w>
m enti
menti oned</w>
log ging</w>
lo wed</w>
liqu id</w>
lim b</w>
lic en
lic ation</w>
li ghts</w>
let ter</w>
leg al</w>
lear ns</w>
le ment</w>
lawy ers</w>
langu ages</w>
la ws</w>
la un
l u
l ink</w>
l ine
l in
kid ney</w>
ke ts</w>
k illing</w>
k il
kil ometers</w>
jour n
jo in</w>
iz ing</w>
it ure</w>
it ely</w>
invest ments</w>
intro duc
inter act</w>
in visible</w>
in ci
import ance</w>
im balance</w>
ill enni
il it
ici ans</w>
i um</w>
i tions</w>
i pl
i j
i ds</w>
i P
hy per
hy dro
hun ger</w>
hum p
ho tel</w>
ho t</w>
ho st</w>
hi d
hel d</w>
health care</w>
head ing</w>
hea vy</w>
he ther</w>
ha i</w>
ha c
h its</w>
gu n</w>
gre e</w>
gra de</w>
go ods</w>
glob alization</w>
gl ue</w>
gh tly</w>
gen e</w>
gen der</w>
g n
g as</w>
g 's</w>
func tional</w>
for th</w>
for nia</w>
foot print</w>
flu id</w>
fin ger
fin ding</w>
fin ancial</w>
figu red</w>
fiel ds</w>
fi xed</w>
fi sh
fi ght</w>
fi f
fe tu
fe males</w>
fe ed
fas hi
far mers</w>
fall ing</w>
fail ed</w>
fac ulty</w>
fa ir</w>
f li
f are</w>
exp and</w>
excep tion</w>
exc ited</w>
ex pe
ev olutionary</w>
ev ol
ev ents</w>
ere as</w>
er ship</w>
er o</w>
equ i
equ ally</w>
entreprene ur</w>
entreprene ur
enti rely</w>
ent y-
engine ering</w>
eng ine</w>
end ers</w>
en ter</w>
en ted</w>
en n
en jo
en ever</w>
el i</w>
effec tively</w>
educ ated</w>
eco system</w>
ec ts</w>
ear th</w>
e ph
e k</w>
e ars</w>
e ar</w>
dru m</w>
dri ven</w>
dres sed</w>
dra w</w>
dr y</w>
dr ones</w>
dr ink</w>
dou bl
domin ant</w>
domes tic</w>
doc tor's</w>
dist ant</w>
disc overy</w>
disc ipl
dic tionary</w>
di stribu
deta il</w>
desig ners</w>
demon strated</w>
dem and</w>
def enders</w>
de va
de tec
de sire</w>
de partment</w>
dat ab
dar k
d ings</w>
d el
d am
dam n</w>
cy ber
cry st
cr y</w>
corrid or</w>
consi der</w>
connec tions</w>
conf erence</w>
con struction</w>
con st
con fig
con duc
compu tation</w>
compon ent</w>
comple xity</w>
comp lished</w>
comp are</w>
comfor table</w>
comb ination</w>
collec ted</w>
col on
co ver</w>
co m</w>
clo ser</w>
cli ent</w>
cl oud</w>
circum stances</w>
circul ation</w>
circu it</w>
chan nel</w>
ch ic
centur ies</w>
cen tr
cen tered</w>
cel l
cat al
care er</w>
c ow</w>
c lick</w>
c ks</w>
c enti
c ate
cate g
bur den</w>
buil ds</w>
buil dings</w>
bub ble</w>
bra ins</w>
bi li
be low</w>
be l</w>
be es</w>
ban ks</w>
b y-
b ond</w>
b locks</w>
b la
au l</w>
assem ble</w>
asp ect</w>
as sum
as sistance</w>
as h
as ed</w>
arti sts</w>
arti f
ari ties</w>
ar ri
ar gu
appro pri
app ly</w>
ang ers</w>
and a</w>
and -
anc y</w>
anal y
an u
an o</w>
an der
an at
am pli
allo ws</w>
aliz e</w>
ali sts</w>
ali fornia</w>
ali a</w>
al lies</w>
al es</w>
al ed</w>
aff ected</w>
adv ice</w>
adap t</w>
ad ul
ad ly</w>
ad dress</w>
achi eve</w>
ac tual</w>
ac ts</w>
ac tors</w>
ac ing</w>
ac count</w>
ac complished</w>
ac ade
ab e
a stron
a stero
a side</w>
a is
a im</w>
a i
a h</w>
You 'll</w>
With out</w>
Wh ite</w>
We i
We 'll</w>
W hether</w>
W K</w>
V ir
V en
Un fortunately</w>
TE D
T ran
T er
Sund ay</w>
Si er
Secon d</w>
Sci ence</w>
S y
S tre
S he's</w>
Re d
R ec
Po le</w>
Palest ini
P i
P er
On ce</w>
O ver</w>
No tice</w>
N ext</w>
N A
NA SA</w>
Musli m</w>
M is
M at
M ad
M W</w>
L ond
L E
J u
In deed</w>
I ran</w>
Gre en</w>
Ghan a</w>
Fin ally</w>
Fi ve</w>
F or
F ace
F D
Europe an</w>
Ear th's</w>
E in
D s</w>
D ar
D P</w>
Ch ri
Cen ter</w>
C ould</w>
C alifornia</w>
Br it
Be ij
Ar thur</w>
Ar t</w>
Ar chi
Ac t</w>
9 9</w>
1 7</w>
1 3</w>
- up</w>
zz le</w>
zer o-
z ar
your selves</w>
youn ger</w>
yma h</w>
y cl
y board</w>
x i
worl ds</w>
wo ke</w>
wit ne
witne ssed</w>
wi re
wire less</w>
wi ld</w>
wi de</w>
wh enever</w>
wh ales</w>
wer en't</w>
wel fare</w>
weap ons</w>
weap on</w>
we ’re</w>
war ning</w>
wan da</w>
wal lowed</w>
wa ves</w>
wa ited</w>
wa it</w>
w ned</w>
w ill
w il
w ide
w ad
viol ent</w>
vill ages</w>
vie wing</w>
vic ti
victi m</w>
vi sit
vi et</w>
ves sels</w>
ver si
ver gence</w>
ver -
ven ted</w>
vehic les</w>
vehic le</w>
vege table</w>
val u
valu able</w>
va sive</w>
v ul
vul ner
v ital</w>
v it
v ere</w>
use ful</w>
ur der
underst o
understo od</w>
under ne
underne ath</w>
under l
underl ying</w>
um ber</w>
ul p
ue f
uef in</w>
u ter
u ne
u ba</w>
typ ical</w>
tun ed</w>
tun a</w>
tum or</w>
tru st
trust wor
tribu tes</w>
triang le</w>
tremend ous</w>
treat ments</w>
tre ating</w>
trans for
tran sition</w>
tran sist
transist or</w>
traff ic</w>
tra vel</w>
tra v
tr end</w>
ton gue</w>
to y</w>
to l
to day's</w>
tic a</w>
ti sh</w>
ti mi
ti ll</w>
ti an</w>
threat ened</w>
thi op
they 'd</w>
ther m
ther 's</w>
the me</w>
th ic</w>
temper ature</w>
techno logical</w>
te sted</w>
tar get</w>
tar c
ta ste</w>
ta ined</w>
ta il</w>
ta gs</w>
t- hand</w>
t ough</w>
t ex
t ank</w>
t ab
systema tically</w>
synthe sis</w>
sym p
sym me
swe ater</w>
sw im
swim ming</w>
susp ici
susp ended</w>
sur faces</w>
sur ance</w>
sup pose</w>
sugge sts</w>
suff ering</w>
succe e
subjec ts</w>
sub tle</w>
su me</w>
stup id</w>
strug gle</w>
strate gy</w>
stra ight
straight forward</w>
stor s</w>
stor ing</w>
stig ma</w>
statis tics</w>
stair s</w>
sta ur
sta kes</w>
st ops</w>
st op
st ations</w>
st ar</w>
st ake</w>
ss -
spher es</w>
spectr um</w>
speci fically</w>
speci alists</w>
sp ring</w>
sp reading</w>
sp on
sp in
spin al</w>
some where</w>
some body's</w>
sol ving</w>
so -
sm ell</w>
sle pt</w>
sle ep</w>
sit es</w>
simil arities</w>
sim ulation</w>
sig n
si zed</w>
si x
si der</w>
si ans</w>
shor t-
sh ouldn't</w>
sh ore</w>
sex y</w>
serv ations</w>
ser ving</w>
ser ies</w>
sens ory</w>
sen ding</w>
se vere</w>
se es</w>
se arch
scri ptions</w>
scri pt</w>
scop ic</w>
scienti fic</w>
scho ol
scen ari
scenari o</w>
sc ulp
sc o</w>
sc aling</w>
sa ved</w>
sa v
sa tions</w>
sa fe
safe ty</w>
s wallowed</w>
s now</w>
s l
s ins</w>
s in</w>
s ick</w>
s an
run s</w>
rou te</w>
ro ll</w>
ric he
riche st</w>
ri de</w>
ri a</w>
respon si
resp ir
respir atory</w>
resi li
ren ch</w>
remem ber
rel ative</w>
rel ation</w>
regre t</w>
regar dless</w>
reg ularly</w>
refriger ator</w>
reflec ted</w>
refer ence</w>
recog nition</w>
recei ve</w>
rec ycl
rec ord</w>
rec la
recla im</w>
reach ing</w>
re verse</w>
re turned</w>
re stric
re store</w>
re staur
re sist
re sc
re pe
re min
re ci
re ads</w>
ran kly</w>
ra dical</w>
ra di
r is</w>
r ay</w>
r ates</w>
r arely</w>
pur sue</w>
pul led</w>
pu tation</w>
pu shed</w>
psy cho
provi ded</w>
proto type</w>
proto cell</w>
protec ts</w>
protec ting</w>
proper ties</w>
promis ing</w>
progra m
profes sion</w>
produc ing</w>
prob able</w>
pro por
pro file</w>
prim ary</w>
pri vi
pri son</w>
pri me</w>
pres ence</w>
predic tions</w>
pre si
pre scriptions</w>
pre p
prep are</w>
pot entially</w>
por tra
poo h
poll en</w>
pol y
po ster</w>
po st-
po ol</w>
po ck
pock et</w>
pleas ure</w>
pl er</w>
pl at
pl as
pi ano</w>
phi lo
philo soph
phenomen a</w>
pharm ace
pharmace u
ph ones</w>
persist ent</w>
per vasive</w>
per su
per s</w>
pe st</w>
pay load</w>
pas sion
part ner</w>
par ti
par k</w>
par enting</w>
par a
pal m</w>
pain t
p ti
p ter</w>
p lo
p ill</w>
p ack</w>
own ers</w>
over all</w>
ous y</w>
other wise</w>
optim ism</w>
optim al</w>
oper ating</w>
op tions</w>
op posed</w>
op ini
op hi
on e's</w>
ol ds</w>
ol and</w>
od or
obser vation</w>
obe sity</w>
ob servations</w>
o ting</w>
o tic</w>
o sphere</w>
o red</w>
o logy</w>
o h</w>
nutri tion</w>
nur ses</w>
notic ing</w>
norm ally</w>
non violence</w>
no where</w>
no de</w>
ni tive</w>
neighbor hood</w>
neighb ors</w>
ne ys</w>
ne go
nego ti
ne arly</w>
na p</w>
n ’t</w>
n ity</w>
n ic
n els</w>
n e</w>
n ations</w>
myster ies</w>
my thology</w>
mush room</w>
mu tual</w>
mon y</w>
mo tors</w>
mis si
mir ror</w>
min ing</w>
min ation</w>
min ate</w>
milit ary</w>
mi x
mi gr
memor y</w>
memor ies</w>
mem bers</w>
mel ting</w>
medic ine</w>
meas uring</w>
me work</w>
me tic</w>
me th
mar gin
manipul ate</w>
mana gement</w>
mag n
ma sses</w>
m us
m urder
m illi
m ic
lym ph</w>
lun g</w>
logi st</w>
lo ses</w>
lo an</w>
lo ads</w>
liter ature</w>
ligh ten
li t</w>
li sts</w>
li ed</w>
li e</w>
li ce</w>
leg ged</w>
lead ing</w>
lead ership</w>
lea ves</w>
lea ther</w>
labor atory</w>
la dies</w>
l oud</w>
l ady</w>
kno wing</w>
ke yboard</w>
ke e
k y
k et</w>
j e
j am</w>
it ’s</w>
it or</w>
isol ate</w>
is tics</w>
is s</w>
is on</w>
inv ited</w>
intu ition</w>
introduc ed</w>
inter nal</w>
inter active</w>
intelli gence</w>
instrum ent</w>
instruc tions</w>
institu tions</w>
inst ance</w>
innov ations</w>
ing ing</w>
infec tion</w>
inf ra
independ ent</w>
increas ed</w>
incre ases</w>
inclu de</w>
in vention</w>
in te
in t
in sp
in ner</w>
in ject</w>
in j
in hi
in gre
ingre di
in ess
iness es</w>
in d
in ch</w>
import antly</w>
imp lications</w>
imp licated</w>
im probable</w>
im pro
im per
im ize</w>
illi ant</w>
ill u
il es</w>
igh t-
identi ty</w>
ide al</w>
ic on</w>
i o
human- centered</w>
horiz on</w>
hor mon
hom o
hol ds</w>
ho b
hi de</w>
her self</w>
hel ping</w>
he ight</w>
har ve
har mony</w>
hand le</w>
hand ful</w>
hall uc
h ouses</w>
h ome
gu is
gre en
grand mothers</w>
grand children</w>
gradu ally</w>
gra vity</w>
gra ins</w>
govern mental</w>
go d</w>
gl am
girl friend</w>
gi fted</w>
gi ble</w>
gent le
gen ome</w>
gen c
genc y</w>
ge ome
g rid</w>
g ri
g han</w>
g el
gel es</w>
g ain
fun ny</w>
fru strated</w>
fre a
fra mework</w>
four th</w>
form ing</w>
for gotten</w>
foot ball</w>
follo wed</w>
fo ods</w>
fo ld</w>
fl u</w>
fin ger</w>
fil ms</w>
figu res</w>
fi res</w>
fe els</w>
fe ature</w>
favor ites</w>
fashi on</w>
fac tors</w>
fac tor</w>
fac ilit
fab ulous</w>
fa ster</w>
fa ith</w>
f ting</w>
f rankly</w>
f oundation</w>
f ill</w>
f ell</w>
extre me</w>
explo sion</w>
explo it</w>
explain s</w>
explain ing</w>
experi ences</w>
exp end
exp ected</w>
ex pose</w>
ex port</w>
ex change</w>
ex ag
ex act</w>
ev in</w>
ev ent</w>
est ate</w>
esp eci
especi ally</w>
erci al</w>
er as</w>
er ad
erad ic
eph ant</w>
ent y</w>
ent ure</w>
ene my</w>
enc ing</w>
enab led</w>
en velo
en tal
en cies</w>
en ables</w>
emp ty</w>
em pathy</w>
electr icity</w>
elec tion</w>
el ine</w>
el ephant</w>
el d</w>
effec ts</w>
effec tive</w>
eff ort</w>
econom ists</w>
econom ies</w>
ea water</w>
e try</w>
e ted</w>
e mail</w>
e ks</w>
e fly</w>
e es</w>
e dge</w>
e aten</w>
dri ves</w>
dre am
dou b
dom ain</w>
doctr ine</w>
do zen</w>
distinc tion</w>
discus sion</w>
discover ing</w>
discipl ine</w>
disappe ar</w>
dis orders</w>
dis associ
dig nity</w>
di ag
di abe
di a
deva stating</w>
determin ed</w>
deta iled</w>
destro yed</w>
desp air</w>
descri bed</w>
der ly</w>
den se</w>
demo graphic</w>
demo cratic</w>
deli ver</w>
defin itions</w>
defin itely</w>
dec ent</w>
de vi
daugh ters</w>
dark ness</w>
da mage</w>
d ysse
d on
d ents</w>
d am</w>
cyber crimin
custom er</w>
curr ently</w>
curr ency</w>
cur ious</w>
crow d</w>
cri sis</w>
cre di
cr ying</w>
cou ra
cor ru
cor por
cor ding</w>
cop yright</w>
control led</w>
continu ing</w>
continu ally</w>
contin ent</w>
cont act</w>
consum ption</w>
const ant</w>
consci ous</w>
config uration</w>
confi dence</w>
conf used</w>
condi tion</w>
con struc
con fir
con dem
compon ents</w>
compar ison</w>
compar ed</w>
comm it</w>
comm ercial</w>
col i</w>
cog nitive</w>
co in</w>
co ast</w>
co ast
coast al</w>
cli ch
cle an
clas sic</w>
civi liz
ci ti
ci sco</w>
chimpanz ees</w>
chic ken</w>
charac ters</w>
ch lear</w>
centi meter</w>
cat s</w>
cat ch</w>
car to
car ry</w>
car ing</w>
car ds</w>
cap tured</w>
cap ac
capac ity</w>
can di
cam pa
call ing</w>
calcul ation</w>
c up</w>
c ents</w>
c coli</w>
c ases</w>
c ally</w>
bus inesses</w>
bur ning</w>
bu g
bu d
bro ke</w>
bro ccoli</w>
bro ad</w>
bri efly</w>
bri dge</w>
brea k
br ush</w>
bot tle</w>
boo k
bom b</w>
bo ld</w>
ble eding</w>
bili ties</w>
bi om
bi a</w>
ber g</w>
bed room</w>
beauti fully</w>
be t</w>
be have</w>
bas tian</w>
back ground</w>
b one</w>
b low</w>
b illions</w>
b at
b ank</w>
autom ati
aud i</w>
att ack</w>
att ach
ast on
as ha
artif icial</w>
arg ument</w>
ar ts</w>
ar ms</w>
ar m</w>
ar gue</w>
appe ared</w>
app lication</w>
app le</w>
ap s</w>
ans as</w>
ann oun
anim ate</w>
ani mation</w>
ang hai</w>
ander th
anat omy</w>
an ticip
an te
an ic</w>
an ces</w>
am a</w>
all -
ali ties</w>
ali st</w>
algorith ms</w>
al though</w>
al ter</w>
al ousy</w>
al ism</w>
air craft</w>
agric ulture</w>
adap tation</w>
ad ults</w>
activi ties</w>
ach ing</w>
ac u
ac ks</w>
ac ci
absolu te</w>
abili ties</w>
a k
a j
a im
a 's</w>
Wh ereas</w>
W el
Ven ice</w>
Uni on</w>
Un der
U p</w>
Tw enty-
Ti me</w>
Th ird</w>
Tal ks</w>
Sy ria</w>
Stre et</w>
St art</w>
So viet</w>
Sier ra</w>
Sh anghai</w>
Secon dly</w>
Se bastian</w>
S wit
S te
S ee</w>
S eawater</w>
S co
S audi</w>
Ri o</w>
R wanda</w>
R ic
Pe ace</w>
Par is</w>
Pa kistan</w>
P ut</w>
P ri
P or
P oland</w>
P lan
P l
P en
P T
O ut</w>
O r
O lym
O dysse
No thing</w>
Ni ger
Ne anderth
N ord
M other</w>
M in
M illenni
M ac
M S</w>
Lond on</w>
Lo s</w>
Le ymah</w>
Le one</w>
L oc
L a
Ken ya</w>
K han</w>
K evin</w>
K ansas</w>
Ju li
Je ws</w>
J H</w>
In dian</w>
I tal
I D
Ha ve</w>
H u
H igh
H ey</w>
H am
Green house</w>
Ger man</w>
G ro
G ra
G ol
G ener
G DP</w>
Fran cisco</w>
FD A</w>
F rench</w>
F all</w>
F G</w>
Every body</w>
Ein stein</w>
E thiop
Di vergence</w>
Di ver</w>
Dar win</w>
D on't</w>
D oes</w>
D el
Con sider</w>
Ch ris</w>
Cen tral</w>
C lar
C ha
C A
Brit ain</w>
Bri tish</w>
Bra z
Beij ing</w>
Be ing</w>
B as
B ar
B MW</w>
B J</w>
At lan
Arch itec
Ar ab
An y</w>
An tarc
An geles</w>
Afric ans</w>
Af ghan</w>
A h</w>
A b
A R
7 5</w>
7 0s</w>
6 00</w>
4 7</w>
4 5</w>
20 50</w>
2 000</w>
196 2</w>
1 20</w>
1 2
- by-
’ ve</w>
} )</w>
zz ling</w>
zer oes</w>
zer land</w>
zar re</w>
z o
z ation</w>
z a</w>
ys is</w>
you th</w>
yl on</w>
y- ness</w>
y tel
ytel ler</w>
y r
y ment</w>
y m
ym ous</w>
y i
x on</w>
wor e</w>
wonder ed</w>
wit z</w>
wi der</w>
whist les</w>
well- being</w>
web sites</w>
we t</w>
we i
we b</w>
war ned</w>
war m</w>
wal ks</w>
wad ays</w>
wa i
w ra
w ning</w>
w ars</w>
w age</w>
vulner able</w>
voc ab
vocab ul
vocabul ary</w>
vo res</w>
vit ational</w>
visu alize</w>
vir uses</w>
vir tually</w>
vir ally</w>
vic tim
victim s</w>
vi sions</w>
vi sc
visc eral</w>
vi ous</w>
vi br
vi an</w>
ver tical</w>
ver the
verthe less</w>
ver ted</w>
ver sus</w>
ver ing</w>
ver ge</w>
ver er</w>
ven tually</w>
ven tions</w>
ven s</w>
veget arian</w>
veget ables</w>
ve y</w>
ve sto
vesto ck</w>
vari ety</w>
val ent</w>
vacc ine</w>
v ous</w>
v enti
v el
v ar
v an</w>
utili zed</w>
ut ants</w>
us tice</w>
us er</w>
us ch
usch witz</w>
us b
ure 's</w>
ur t</w>
ur ge</w>
univer sal</w>
uni st</w>
uni form</w>
under water</w>
un reasonable</w>
un locks</w>
un its</w>
un happy</w>
un clear
un bar</w>
um s</w>
um ns</w>
ultim ate</w>
ul se</w>
ul ations</w>
ul ar
ue en</w>
uc tu
u si
u sage</w>
u rement</w>
u ed</w>
ty ran
ty -
tun as</w>
tum ors</w>
tu re
tu m</w>
tu be</w>
tu ary</w>
trustwor thin
trustworthin ess</w>
trou bling</w>
tro pics</w>
triang les</w>
tri g
tri als</w>
transp ort</w>
transp or
trans plant</w>
trans late</w>
trans formed</w>
tradi tion</w>
tra st</w>
tra p</w>
tra ge
tr illion</w>
tr i</w>
tr ends</w>
tr aces</w>
tou ris
touris m</w>
top sy</w>
tol er
toi let</w>
to ys</w>
to ss</w>
to sh</w>
tis sue</w>
tin c
tin a</w>
tim acy</w>
tic als</w>
ti tude</w>
ti tle</w>
ti l
ti fication</w>
three- dimensional</w>
thr one</w>
thou ghts</w>
tho od</w>
thir ds</w>
them es</w>
th usi
th ical</w>
th al
ter r
ter ing</w>
ten s</w>
tem por
tem ple</w>
techni que</w>
teach es</w>
te x</w>
te sts</w>
te en
te dness</w>
te ars</w>
te a
tar ge
tan ks</w>
tal ism</w>
tag on</w>
ta tional</w>
ta st
ta ils</w>
t ted</w>
t t</w>
t oms</w>
t led</w>
t le-
tle- known</w>
t ball</w>
t abo
t ables</w>
synthe tic</w>
synap se</w>
symp toms</w>
symme try</w>
symbo l</w>
sym b
symb ols</w>
sustain ably</w>
sustain ability</w>
suspec ts</w>
survi vor</w>
sur g
suppor tive</w>
suppor ting</w>
super power</w>
sum mar
sum m
sug ar</w>
suffici ently</w>
suff ers</w>
succee ded</w>
sub si
sub ject</w>
su rely</w>
su per</w>
stu died</w>
stro ke</w>
stri al</w>
streng then</w>
streng th</w>
stre ams</w>
strate gi
str alia</w>
stor yteller</w>
stop ped</w>
sto res</w>
sto red</w>
stitu te</w>
stic ks</w>
sti le</w>
ste el</w>
ste alth</w>
ste ady</w>
stair case</w>
st y</w>
st on</w>
st ay
st af
staf f</w>
st ac
stac les</w>
ss ly</w>
ss ing</w>
squ e
sque e
squ ares</w>
spon taneously</w>
spo ts</w>
spir itual</w>
spir it</w>
spi ke</w>
sper ity</w>
spea kers</w>
spea ker</w>
sp lit</w>
sp ar
sp an</w>
sp aces</w>
sour cing</w>
soun ded</w>
sol di
soldi ers</w>
so- called</w>
so le</w>
so ils</w>
smo oth</w>
smo king</w>
smo ke</w>
smar ter</w>
sli ghtly</w>
sle e
slee ping</w>
sla ve</w>
ske tch</w>
sk ull</w>
sk top</w>
sk ill</w>
six -
simul taneously</w>
sig ned</w>
sig nal</w>
si vely</w>
si ties</w>
sho oting</w>
shel ves</w>
sha ped</w>
sha ke</w>
sh ops</w>
sh ir
sh ar
sexu ality</w>
ses sions</w>
ses sion</w>
ser ver</w>
ser ved</w>
ser ve</w>
separ ated</w>
sent ence</w>
sens ors</w>
self- assem
self-assem bly</w>
search ing</w>
sea water</w>
se mi
semi -
se as
seas ons</w>
se 's</w>
scre ening</w>
scar f</w>
sal es</w>
sa tis
sa iling</w>
sa d</w>
s wee
s tic</w>
s or</w>
s nap</w>
s mile</w>
s m</w>
s low</w>
s ki
s ics</w>
s en</w>
s day</w>
s ch
s bur
s arg
sarg as
sargas sum</w>
s and</w>
s anc
ru ples</w>
ru b
rot ate</w>
roo ts</w>
roo fs</w>
rol led</w>
rol l
ro ws</w>
ri gation</w>
ri er</w>
ri dic
ridic ulous</w>
reve aled</w>
rev olu
revolu tions</w>
restric tions</w>
restaur ants</w>
responsi bility</w>
resp ec
research er</w>
requi res</w>
requ ire</w>
requ est</w>
repor ted</w>
remember ing</w>
rema ined</w>
rel ate</w>
reg imes</w>
refu se</w>
reflec ts</w>
reflec tive</w>
recor ds</w>
recor ded</w>
reason ing</w>
real m</w>
real -
real- time</w>
reach es</w>
reac tions</w>
re ward</w>
re vi
re tro
re tina</w>
re sur
re productive</w>
re production</w>
re present</w>
re jec
rejec ted</w>
re gener
re ef</w>
re define</w>
re defin
redefin ed</w>
re bo
re bel</w>
re a
ran ked</w>
rain y</w>
rain drops</w>
radic ally</w>
ra m
r ying</w>
r y
r um
r ice</w>
r ene
rene w
r are</w>
r ace</w>
qu ot
qu es</w>
qu er</w>
qu e
qu ad
quad ruples</w>
pur chase</w>
pub li
pu zzle</w>
pu ter</w>
pu ppe
pu b</w>
pti ans</w>
provi des</w>
proto co
protoco l</w>
propag anda</w>
promo te</w>
projec tions</w>
program med</w>
prof oun
profoun dly</w>
prof it
profit able</w>
produc es</w>
pro state</w>
pro sperity</w>
pro of</w>
pro li
pro ces
proces sing</w>
privi le
princi ples</w>
prin ts</w>
prin ter</w>
pri v
pri orities</w>
predic table</w>
preci sely</w>
prac tical</w>
pra ying</w>
post- conflict</w>
possi bility</w>
possi bilities</w>
pos ure</w>
pos ite</w>
pos ing</w>
por ts</w>
poll utants</w>
poin ted</w>
po sted</w>
po st</w>
po logists</w>
po is
po etry</w>
po c
poc kets</w>
plas tics</w>
plan ted</w>
plan es</w>
plac ed</w>
plac e
place bo</w>
pl om
pl enty</w>
pl ain</w>
pic ked</w>
pi pel
pipel ines</w>
pi pe</w>
pi g</w>
physici sts</w>
physici an</w>
phys ically</w>
phenomen al</w>
ph y
persu a
persist ence</w>
per form</w>
per cen
percen tage</w>
per cei
pen ness</w>
pe dia</w>
pe ak</w>
pati ence</w>
passion ate</w>
partner ship</w>
parti al</w>
par o
par as
paras ite</w>
par al
pal u</w>
pal e
p umps</w>
p on
pon ds</w>
p ment</w>
p lic
p ecu
pecu liar</w>
p ause</w>
p ad</w>
ox ide</w>
out -
ous -
our t</w>
ound ary</w>
ou sing</w>
ou ds</w>
ou b
origin ally</w>
organiz ing</w>
or ing</w>
or bit</w>
or b
or -
open ness</w>
open ha
openha gen</w>
op y</w>
op tion</w>
op posite</w>
op e</w>
oo m</w>
on ymous</w>
on net</w>
on ia</w>
ol phins</w>
ol d-
off spring</w>
off icial</w>
off ering</w>
off ered</w>
of -
od 's</w>
occurr ing</w>
occur s</w>
oc ca
obser ved</w>
objec tivity</w>
ob stacles</w>
ob li
o king</w>
o '
o' clock</w>
nur turing</w>
num ber
number ed</w>
nu al</w>
nor thern</w>
nor th</w>
no wadays</w>
no tion</w>
no te
no dding</w>
no body's</w>
ni gh
nigh t
net -
net- dating</w>
ner vous</w>
negoti ations</w>
necess arily</w>
ne vertheless</w>
ne ither</w>
ne e</w>
ne ar
near by</w>
nam ic</w>
n or</w>
n it</w>
n avi
n ati
my th</w>
mus icians</w>
multi ply</w>
multi -
moti v
mor ality</w>
mon th-
mon itor</w>
moder n
mo tor</w>
mo squ
mo on</w>
mix ing</w>
mis sions</w>
mis s</w>
mind set</w>
min imize</w>
mi stakes</w>
mi stake</w>
mi st</w>
meth ods</w>
ment or</w>
men tion</w>
men talism</w>
mechan ism</w>
meas urement</w>
mean ing
meaning ful</w>
me tric</w>
me des</w>
may or</w>
mathema tician</w>
marke ting</w>
margin alized</w>
mar k</w>
manu fac
manufac turing</w>
manipul ation</w>
man age</w>
mammo graphy</w>
mam m
mal nutrition</w>
main tain</w>
magn itude</w>
magaz ines</w>
mag ne
ma x
ma tive</w>
ma tions</w>
ma ster
ma s
ma pped</w>
ma kers</w>
m ys
m outh</w>
m m
m it
m ics</w>
m ice</w>
m ful</w>
m all</w>
lun gs</w>
low- tech</w>
long- range</w>
loc ked</w>
loc ate</w>
lob s</w>
lo sses</w>
lo gra
lit tle-known</w>
line ar</w>
lighten ment</w>
life time</w>
life style</w>
licen se</w>
li vestock</w>
li ch
lich ens</w>
lev it
levit ated</w>
less ons</w>
less on</w>
le x
le ver</w>
le st</w>
le g</w>
le f
lef t-hand</w>
lay ing</w>
lay er</w>
lawy er</w>
large -
lap top</w>
lab eled</w>
la paro
l en</w>
l as
l ad
l a</w>
ki pedia</w>
ki logra
k nit</w>
k nee</w>
k iss</w>
k ic
kic ked</w>
k ering</w>
k er
k e's</w>
jud gment</w>
ju dge</w>
journ alist</w>
jour neys</w>
jo ke</w>
ja il</w>
j usti
j ump</w>
j ar</w>
it y's</w>
it i</w>
it ement</w>
it ect</w>
it arian</w>
it ably</w>
isol ation</w>
isol ated</w>
ir rigation</w>
io sity</w>
invest ment</w>
intu i
intui tive</w>
inter viewed</w>
inter view</w>
inter face</w>
int act</w>
institu tion</w>
inst inc
inspi red</w>
insp ire</w>
injec tion</w>
inj ur
initi ate</w>
inhi bits</w>
ingredi ents</w>
infra structure</w>
infec tions</w>
inf ected</w>
ine quality</w>
ine ly</w>
industri alized</w>
indic ates</w>
increas ingly</w>
increas ing</w>
inc ing</w>
in y</w>
in ver
in vented</w>
in ts</w>
in tr
in tosh</w>
in tan
in surance</w>
in stantly</w>
in sight</w>
in put</w>
in i</w>
in hal
in guis
inguis ha
inguisha ble</w>
in ev
inev itably</w>
in er
in dist
indist inguishable</w>
in di
in ations</w>
in ating</w>
in 's</w>
imp ulse</w>
immun ized</w>
immun e</w>
im self</w>
im plants</w>
im mortality</w>
im mer
ill ness</w>
ili bri
ilibri um</w>
il legal</w>
il ba
ilba o</w>
il anthro
ilanthro py</w>
id en
iden tical</w>
ic h
ic a</w>
i red</w>
i ously</w>
i g</w>
i est</w>
i a
hyper bo
hy bri
hump back</w>
hum or</w>
hor se
hope fully</w>
hope ful</w>
hon ored</w>
hon est</w>
homo sexuality</w>
hom es</w>
hol ding</w>
ho wever</w>
ho t
ho stile</w>
ho se</w>
ho p</w>
high- tech</w>
high ly</w>
high est</w>
hid den</w>
hi stor
hi ld</w>
hea ven</w>
he l</w>
har mful</w>
har dly</w>
habit at</w>
ha un
ha t
ha m</w>
ha ir</w>
ha bit</w>
h usb
h imself</w>
h at</w>
gun s</w>
guar ds</w>
guar ante
gro ws</w>
gro wn</w>
gro cer
grocer y</w>
gre eted</w>
grand mother</w>
gra vitational</w>
gra ve</w>
gra tion</w>
gra ss
gr and</w>
go s</w>
go g
go ds</w>
go d
god mother</w>
glam our</w>
gl ory</w>
gin ia</w>
ger en</w>
ger ed</w>
geome try</w>
geo graphy</w>
gener ated</w>
ge ar</w>
gar den</w>
g lows</w>
g lo
g ling</w>
g li
g les</w>
g in</w>
g ged</w>
g ated</w>
g ate</w>
g an
g all
fundam ental
fulf illed</w>
fu sion</w>
fu el</w>
friend ship</w>
frequ encies</w>
fre ely</w>
fortun ate</w>
fore sts</w>
for d</w>
for bi
fo o
fle w</w>
fl uctu
fl ect</w>
fl at</w>
fl ash</w>
fl ags</w>
fin ish</w>
fin gers</w>
fif ty</w>
fic it</w>
fetu s</w>
fer tili
feed back</w>
fe male</w>
fe eding</w>
fav or</w>
far ms</w>
far mer</w>
far m</w>
fami lies</w>
facilit ator</w>
fab ric</w>
fa il</w>
f lower</w>
f ed</w>
f at
fat al</w>
exten ding</w>
explor ation</w>
explo itation</w>
experim enting</w>
experi enced</w>
expend iture</w>
expec tations</w>
expec t
expe di
expedi tions</w>
exist ing</w>
excep tions</w>
exc ites</w>
exc itement</w>
exc es
exces sive</w>
exam ine</w>
ex tinc
ex posure</w>
ex otic</w>
ex ha
ex clu
evi l</w>
ev olves</w>
eth ically</w>
eth ical</w>
estab lished</w>
estab lish</w>
ess ential</w>
es sion</w>
es ert</w>
es cap
eri an</w>
eri a</w>
er s'</w>
equ ilibrium</w>
equ ation</w>
epide mics</w>
epide mic</w>
environ mentalism</w>
envelo pe</w>
entrepreneur s</w>
ent ally</w>
enni al</w>
enn ington</w>
enjo ying</w>
engine ers</w>
end a</w>
enc e's</w>
en ters</w>
en joy</w>
en ign</w>
en e</w>
en dea
endea vor</w>
en coun
encoun tered</w>
en able</w>
emp ire</w>
emo tional</w>
embr acing</w>
embr ace</w>
em powered</w>
em power</w>
em power
em bed
embed ded</w>
em bar
electr onic</w>
electr on</w>
el l
el ite</w>
el ess</w>
el ds</w>
el derly</w>
eg g</w>
effici ency</w>
eff orts</w>
eco logy</w>
eco logical</w>
ec ember</w>
earli est</w>
e ye
e ight-
e geren</w>
e fs</w>
e ds</w>
dy namic</w>
du k</w>
dro ve</w>
dre w</w>
dr us</w>
doubl ed</w>
doub t</w>
dou ble</w>
dou ble
double -
dor ms</w>
doc um
do zens</w>
do ve</w>
do t</w>
do gs</w>
divi sion</w>
divi ded</w>
distribu ted</w>
disappe ars</w>
disa gree</w>
dis order</w>
dis inte
dis h</w>
dis ability</w>
direc tion</w>
direc ted</w>
dig ging</w>
di verse</w>
di shes</w>
di sh
di plom
di et</w>
di al</w>
deter gent</w>
detec tor</w>
destro y</w>
desig ning</w>
der n</w>
der Plan
derPlan et</w>
dep ending</w>
dep end</w>
defin ing</w>
def en
dea f</w>
de sper
de sktop</w>
de sk</w>
de mic</w>
de man
de ficit</w>
daugh ter</w>
datab ases</w>
da zzling</w>
d- sourcing</w>
d un
d um
d it</w>
d dy</w>
d angers</w>
d ad</w>
cur iosity</w>
cul ar</w>
cu tting</w>
cryst als</w>
cru de</w>
crow d-sourcing</w>
cro ss-
cro p</w>
cro ch
croch et</w>
credi ble</w>
cre te</w>
cre dit</w>
cre atures</w>
cre ature</w>
cre ation</w>
cra shed</w>
cra sh</w>
coun ting</w>
coun t
cos mic</w>
cor tex</w>
cor respon
cor d</w>
cop per</w>
cooper ative</w>
cooper ation</w>
conv incing</w>
conv ic
control ling</w>
continu es</w>
construc t</w>
connec tivity</w>
confi dent</w>
conclu sion</w>
conclu de</w>
concer ned</w>
con trast</w>
con test</w>
con serv
con sent</w>
con crete</w>
con cep
compe ting</w>
compan i
comp ounds</w>
communic ations</w>
comm ute</w>
comm unist</w>
comm itted</w>
comm it
comm an
comb ined</w>
com posed</w>
collec tively</w>
collabor ators</w>
col li
col lap
co ok</w>
co logy</w>
co inci
co efficient</w>
co ck
co chlear</w>
co al</w>
clo the
cli ents</w>
clear er</w>
cle verer</w>
class rooms</w>
class room</w>
clas ses</w>
cl ouds</w>
circul ar</w>
circu its</w>
cir cles</w>
ci ous</w>
ci l</w>
cho ol</w>
cho o
che eks</w>
che aper</w>
character istics</w>
character istic</w>
chan ces</w>
challeng ing</w>
challeng ed</w>
cha pter</w>
ch ess</w>
ch ers</w>
ch at</w>
cen ters</w>
celebr ate</w>
cau sed</w>
categ ories</w>
catal y
cat ap
care fully</w>
care ful</w>
car rying</w>
cap ture</w>
cap it
can als</w>
cam ps</w>
cam eras</w>
ca st</w>
c ross</w>
c lic
c ab
by e</w>
bus y</w>
bu g</w>
bro ad
brea thing</w>
brea king</w>
bre ath</w>
bre ad</w>
bran ded</w>
bran ch</w>
br on
br illiant</w>
bor ne</w>
bor ders</w>
bor der</w>
book store</w>
bo red</w>
blo wing</w>
blo g</w>
blin dness</w>
ble ssed</w>
bla me</w>
bl uefin</w>
bir th
bio sphere</w>
bio logists</w>
bi zarre</w>
bi ennial</w>
bi as</w>
believ ed</w>
bel on
be sides</w>
be gun</w>
be er</w>
be ach</w>
base ment</w>
b ru
b right</w>
b oundary</w>
b oun
b ones</w>
b logging</w>
b lobs</w>
b inary</w>
b enign</w>
b at</w>
b an</w>
automati cally</w>
auc tion</w>
au topsy</w>
au ton
attr action</w>
att ach</w>
ati n</w>
ate ful</w>
at tributes</w>
at ti
at tem
astero ids</w>
asse ts</w>
asha med</w>
as set</w>
as ses</w>
as car</w>
artic le</w>
argu ing</w>
are st</w>
arch itect</w>
arch e
ar ran
ar i</w>
ar ance</w>
ar able</w>
ar 's</w>
appropri ately</w>
approach es</w>
appro val</w>
appe arance</w>
appar ent</w>
app reci
ap p</w>
anu ary</w>
announ ced</w>
ani mations</w>
ance stors</w>
anc ing</w>
analo gy</w>
an onymous</w>
an nual</w>
an g</w>
an ford</w>
an ese</w>
an e</w>
an 's</w>
ampli fied</w>
am ent</w>
am bi
al u
al t
al istic</w>
al -
air planes</w>
air e</w>
agre ement</w>
ag ers</w>
ag ent</w>
ag enda</w>
ag ascar</w>
after wards</w>
aff ord
adv enture</w>
adv ance</w>
adul thood</w>
adap ted</w>
ad ult</w>
ad minist
ad dressed</w>
ad dition</w>
ad ded</w>
achi ev
ach es</w>
acci dent</w>
accep table</w>
ac ous
ac ious</w>
ac hel</w>
ab und
a vo
a the
a i</w>
[ unclear
X -
Wom en</w>
Wom an</w>
Wi kipedia</w>
Wh ile</w>
W al
Vir ginia</w>
Uni lever</w>
U sing</w>
U S
U C
Tor aj
The ir</w>
Th rough</w>
Th ree</w>
Ter ence's</w>
TED Talks</w>
T um
T it
T imes</w>
T em
T -
Swit zerland</w>
Su n</w>
Su ddenly</w>
St anford</w>
Some thing</w>
Some one</w>
Some body</w>
Sh ir
S ta
S pain</w>
S im
S ho
S ha
S ec
S chool</w>
S am
S al
S W</w>
S I
S D</w>
Ric hard</w>
Red wood</w>
Rec ently</w>
Re search</w>
Re ich</w>
R ule</w>
R achel</w>
R SW</w>
Q ueen</w>
Pen tagon</w>
Par ty</w>
Palestini ans</w>
P rin
P re
P r
P lease</w>
P it
P h
P aul</w>
Olym pics</w>
Odysse us</w>
O s</w>
O penness</w>
Nord en</w>
No body</w>
Ni xon</w>
Neanderth als</w>
N umber</w>
N ature</w>
N ational</w>
Mo tor</w>
Mo dern</w>
Millenni um</w>
Me egeren</w>
Me dical</w>
Mat ch</w>
Mar duk</w>
Mar c
Mad agascar</w>
Mac intosh</w>
Ma thema
M ic
M ember</w>
M ay</w>
M an</w>
M al
M ake</w>
M R
M P
Loc al</w>
Li fe
LE Ds</w>
L uc
L aw
L atin</w>
K le
K h
Jap anese</w>
J er
J anuary</w>
Isra eli</w>
Inter net-dating</w>
In fin
I g
Ho wever</w>
He alth</w>
Ha wai
Ha iti</w>
H omo</w>
H ind
H el
Gre ek</w>
Go od</w>
Ger many</w>
G u
G lob
G i
G al
For ty</w>
Fl u</w>
Face book</w>
F ord</w>
F o
F ac
Every one</w>
Egy ptians</w>
Egy pt</w>
E ventually</w>
E l
E con
De velo
D unbar</w>
D u
D ou
D olphins</w>
D is
D esert</w>
D ecember</w>
D ay</w>
Con go</w>
Com puter</w>
Car son</w>
Car derPlanet</w>
Cam er
C ultural</w>
C ri
C ourt</w>
C oun
C openhagen</w>
C hild</w>
C as
C a
C R</w>
C K</w>
C H
Bu drus</w>
Braz il</w>
Bo th</w>
Bo ston</w>
Bo s
Bi g</w>
Be hind</w>
Be fore</w>
Be er</w>
Bas ically</w>
B ur
B onnet</w>
B ol
B l
B ilbao</w>
B ic
B ennington</w>
B ay</w>
B al
Au stralia</w>
Atlan ta</w>
Archi medes</w>
Antarc tica</w>
An y
An n</w>
Ac cording</w>
Ab out</w>
A vian</w>
A uschwitz</w>
A ri
A lice</w>
A dam</w>
9 8</w>
9 3</w>
8 5</w>
7 7</w>
7 00</w>
6 5</w>
50 -
5 2</w>
5 0s</w>
5 -
4 0
3 7</w>
3 50</w>
3 3</w>
3 2</w>
3 0s</w>
3 -
2 50</w>
19 50</w>
18 00</w>
1 9</w>
1 0
- and-
( {</w>
' 70s</w>
á n</w>
zero- sum</w>
zero- g</w>
z y
zy me</w>
z oom</w>
z ones</w>
z ing
z i
zi p</w>
ys ms</w>
yr on</w>
you th-
youth- obsessed</w>
yl via</w>
yl ene</w>
yi eld</w>
year- olds</w>
ye es</w>
ye ah</w>
y lon
y er</w>
y e</w>
xi ety</w>
xi ble</w>
x ious</w>
x els</w>
writ ers</w>
wra pping</w>
work place</w>
wor th
worth while</w>
wor ship</w>
wor ry</w>
woo ds</w>
woo den</w>
wom an's</w>
wit sch
witsch ia</w>
wit ness</w>
wit ch</w>
win ding</w>
win d
will ful</w>
wil der
wilder ment</w>
wil d
wide spread</w>
wi per</w>
wi den</w>
who le
who ever</w>
whe els</w>
wha t
what so
whatso ever</w>
wh is
whis ky</w>
wh ale</w>
wer ed</w>
wel ls</w>
wei gh</w>
wee k
wee ds</w>
wea ve</w>
wea ther</w>
we ’ve</w>
we igh
we e</w>
we dding</w>
we aring</w>
we arable</w>
we ak</w>
water fall</w>
water borne</w>
wat ts</w>
wat ers</w>
wat ched</w>
wat ana</w>
was h</w>
waren ess
wareness -
wareness- raising</w>
war d
wan ting</w>
wa sted</w>
w ound</w>
w ns</w>
w is
wis dom</w>
w ire</w>
w ins</w>
w der</w>
w an</w>
w -
voc al</w>
vo ting</w>
visit ing</w>
vir ul
virul ence</w>
vir al</w>
vil le</w>
vi sing</w>
vi ly</w>
vi de</w>
ves sel</w>
versi fy</w>
versi al</w>
vern ments</w>
ver pool</w>
ver i
ver 's</w>
venti onal</w>
ven ess</w>
ve ter
ve ments</w>
ve ins</w>
ve iling</w>
vari ations</w>
vari ation</w>
val ves</w>
val ve</w>
v olution</w>
v is</w>
v ington</w>
v ine</w>
v ent
v as
vas cular</w>
v ary</w>
v ani
v ana</w>
v an
v acu
vacu um</w>
v a</w>
utili ties</w>
uter o</w>
usti ble</w>
use ful
useful ness</w>
us er-
us al
usal em</w>
urb s</w>
ur ysms</w>
ur sday</w>
ur k
urk he
urkhe im</w>
ur gency</w>
ur ban
ur ally</w>
ur able</w>
ur a</w>
up set</w>
up right</w>
univer sities</w>
uni sia</w>
uni qu
uniqu ely</w>
une qu
under way</w>
under p
und reds</w>
und oub
un usual</w>
un ting</w>
un sustainable</w>
un seen</w>
un protected</w>
un predictable</w>
un organized</w>
un necessary</w>
un limited</w>
un like</w>
un known</w>
un k</w>
un ites</w>
un intelli
unintelli gible</w>
un ich</w>
un fortunate</w>
un fol
un finished</w>
un cut</w>
un cul
uncul us</w>
un certa
uncerta in
uncertain ty</w>
un believ
un be
un able</w>
umin ate</w>
um ph
umph s</w>
um n</w>
um b
umb tac
umbtac king</w>
um -
um- 6</w>
ular ized</w>
ul c
ul ated</w>
ul ags</w>
uc ial</w>
u tion</w>
u sted</w>
u sion</w>
u pro
upro ar</w>
u pri
u nex
unex plo
u es
u el</w>
u de</w>
u bi
ubi qu
ubiqu it
ubiquit ous</w>
u b
ub lic</w>
u a</w>
tyran n
ty- free</w>
ty ro
tyro fo
tyrofo am</w>
two- thirds</w>
two- dimensional</w>
ture 's</w>
tur n
turn out</w>
tu p</w>
tu des</w>
tu bes</w>
tt les</w>
tt an</w>
tt a</w>
tro ops</w>
trig gered</w>
tri umphs</w>
trav eling</w>
transpor tation</w>
transpar ent</w>
transpar ency</w>
transfor mative</w>
transfor mation</w>
trans national</w>
trans mit</w>
trans mission</w>
trans fer</w>
trage dy</w>
tra w</w>
tra sh</w>
tra ps</w>
tra pped</w>
tra ding</w>
tr uck</w>
tr ical</w>
tr ic
tox ins</w>
tox ic</w>
tor tured</w>
tor ies</w>
tor al</w>
top od</w>
top ic</w>
top ian</w>
tom a
toma to</w>
toler ance</w>
toi lets</w>
to- do</w>
to yed</w>
to wer</w>
to oth</w>
to ol
tool box</w>
to ire</w>
to en
toen a
tis su
tissu es</w>
tis m</w>
tion ers</w>
tion ed</w>
tin kering</w>
timi ze</w>
timi dating</w>
tim ately</w>
til ity</w>
ti zed</w>
ti watana</w>
ti vate</w>
ti ps</w>
ti p</w>
ti ous</w>
ti les</w>
ti ger</w>
ti fic
ti er</w>
ti d</w>
thre ats</w>
tho scope</w>
tho lic</w>
thin g's</w>
thin g
thi um-6</w>
therm ophi
thermophi lic</w>
therm al</w>
ther s'</w>
ther -
ther- in-
the tic</w>
the ories</w>
the ater</w>
the ast</w>
that ’s</w>
thal ates</w>
th west</w>
th umbtacking</w>
th room</w>
th qu
thqu ake</w>
th in</w>
th ick</w>
th en
terri bly</w>
terr ori
terrori st</w>
ter rain</w>
ter i
teri as</w>
ter 's</w>
ten th</w>
ten berg</w>
teles cop
telescop es</w>
teen agers</w>
techno log
technolog y's</w>
techni ques</w>
techn ically</w>
techn ical</w>
tea po
te ther</w>
te ens</w>
te dly</w>
te ddy</w>
te ams</w>
tast es</w>
targe ted</w>
tar tan</w>
tal lest</w>
tal in</w>
tal es</w>
tag ged</w>
tabo o</w>
tab let</w>
ta per
ta d
tad pole</w>
t- end</w>
t- com</w>
t ter</w>
t sbur
t s'</w>
t one</w>
t g
tg ages</w>
t ful</w>
t ence</w>
t ched</w>
t at
t ance</w>
t ach
tach ed</w>
t ably</w>
systema tic</w>
synap tic</w>
syn dro
syndro me</w>
symbo lic</w>
symbo li
symboli zed</w>
swee ping</w>
sw ol
swol len</w>
suspici ous</w>
suspici on</w>
suspec t's</w>
susp ending</w>
surve ys</w>
surroun ds</w>
surroun ding</w>
surroun ded</w>
surpri sing
surprising ly</w>
surpri sed</w>
surger ies</w>
surg ical</w>
sur d</w>
suppor ts</w>
suppor ted</w>
supp lies</w>
sun -like</w>
summar ized</w>
summ ary</w>
sum ption</w>
sum ably</w>
sul tan</w>
sugge sted</w>
suffici ent</w>
success fully</w>
success es</w>
succe ed</w>
suc k</w>
subsi di
subjec tivity</w>
sub way</w>
sub urbs</w>
sub ur
sub scri
subscri ption</w>
sub lim
sublim ated</w>
su le</w>
su its</w>
su it
suit case</w>
su ici
suici de</w>
su bl
subl ine
subline ar</w>
stup ide
stupide st</w>
stu res</w>
stu b
stub born</w>
strug gling</w>
struc k</w>
stri pped</w>
stri pes</w>
strategi es</w>
stra pped</w>
stra p</w>
str ing</w>
str ating</w>
str at
str ands</w>
str an
stor m</w>
stor age</w>
sto cks</w>
sto ck
stitu tion</w>
stimul i</w>
sti l
stil l-
still- life</w>
ste thoscope</w>
ste ps</w>
ste pped</w>
ste em</w>
ste am</w>
ste al</w>
stay ing</w>
stat ue</w>
star tup</w>
star ing</w>
star fish</w>
st uck</w>
st or</w>
st onia</w>
st ol
stol en</w>
st m
stm as</w>
st ling</w>
st le</w>
st eri
st ent</w>
st ays</w>
st ands</w>
st air</w>
st ages</w>
st a</w>
st Sec
stSec re
stSecre t</w>
ss ness</w>
ss entially</w>
squee zing</w>
spo tted</w>
spo ken</w>
spir aling</w>
spi kes</w>
speci al
spec im
spe eding</w>
spar ency</w>
sp reads</w>
sp r
sp orts</w>
sp ort</w>
sp ite</w>
sp ine</w>
sp in</w>
sp id
spid ers</w>
sour ces</w>
soun ding</w>
sou l</w>
sor ship</w>
some day</w>
sol ved</w>
sol o</w>
sol ar-
solar- powered</w>
soci alization</w>
so on
soon er</w>
so le
sole ly</w>
so il</w>
small er-
smaller- sized</w>
sli pped</w>
sle ep
ski ing</w>
ske p
skep tical</w>
sk y
sk -
sist ence</w>
sion less</w>
sion ally</w>
sing ers</w>
simpli fication</w>
sim plic
simplic ity</w>
sim pler</w>
sim ple
simple st</w>
sil ks</w>
sil k</w>
sign als</w>
sig nature</w>
side walks</w>
si tive</w>
si ology</w>
si gh
sigh ted</w>
si ded</w>
shoul der</w>
short- term</w>
sho res</w>
shir ts</w>
shi pping</w>
shi fting</w>
shi ba</w>
shel f</w>
she ep</w>
she 'd</w>
shar ks</w>
sha hid
shahid i</w>
sha ft</w>
sha do
sh y</w>
sh win</w>
sh ua</w>
sh ri
shri m
shrim p</w>
sh op
shop ping</w>
sh ment</w>
sh ining</w>
sh che
shche v</w>
sh al
sexu al</w>
sever s</w>
sever ely</w>
sett ings</w>
ser mon</w>
ser iously</w>
sequ encing</w>
separ ating</w>
sen sus</w>
sen sual</w>
sen sitive</w>
sen sing</w>
sen gers</w>
self- recognition</w>
self- hood</w>
self- e
self-e steem</w>
self- absorbed</w>
selec tion</w>
selec ting</w>
see king</w>
see k</w>
secon d-
sec ular</w>
sec tions</w>
sec tion</w>
se ven
se tting</w>
se st</w>
se ph</w>
se al</w>
se -
scre wed</w>
scop y</w>
scienti st</w>
sci ences</w>
scar city</w>
sc ure</w>
sc uba</w>
sc ore</w>
sc oo
scoo ter</w>
sc o
sc end
sc an
sc al
scal able</w>
sav ann
savann as</w>
satis fied</w>
sal t</w>
sac ri
sac red</w>
sa ving</w>
sa r</w>
sa m
sam ple</w>
s wing</w>
s tion</w>
s sex</w>
s ous-
sous- vide</w>
s no
sno ws</w>
s n
s mi
smi le
s log
slog an</w>
s light</w>
s lic
s enti
s ect</w>
s che
sche me</w>
s ary</w>
s and
s ance</w>
s ale</w>
s )</w>
rum mage</w>
ru shchev</w>
roun d
rough ness</w>
rou t
roo t</w>
roo k
rook ly
rookly n</w>
roll ment</w>
rol ls</w>
rol ling</w>
roc kets</w>
robo tic</w>
ro w
ro t</w>
ro se</w>
ro pe</w>
ro mo
romo some</w>
ro it</w>
ro fluid</w>
ro b
ro ad
ro ach</w>
righ te
righ t-
ric her</w>
ri sk-
ri ses</w>
ri pple</w>
ri ghting</w>
ri g</w>
ri day</w>
ri bs</w>
reven ue</w>
reven ge</w>
resur rec
respon sible</w>
reson ance</w>
resist ed</w>
resist ant</w>
resili ent</w>
resili ence</w>
rese m
resc ued</w>
res sing</w>
res olved</w>
res olution</w>
requi re
require ments</w>
replac ement</w>
renew able</w>
remo ved</w>
remin ded</w>
remark ably</w>
rema ins</w>
rema in
remain der</w>
reli able</w>
regi ons</w>
reg ulating</w>
reg ain</w>
refer red</w>
ref er</w>
reduc ing</w>
recycl ing</w>
recep tors</w>
recep tor</w>
recep tac
recei ver</w>
rec ession</w>
rec ess</w>
rebo ot</w>
real istic</w>
reach ery</w>
reach ed</w>
reac tor</w>
rea di
readi ly</w>
re z</w>
re y</w>
re viewing</w>
re turns</w>
re turning</w>
re treating</w>
re tention</w>
re strial</w>
re storing</w>
re stored</w>
re sted</w>
re putation</w>
re place</w>
re per
reper toire</w>
re pair</w>
re minds</w>
re men</w>
re ls</w>
re le
rele ased</w>
re ject</w>
re fre
refre shing</w>
re form</w>
re elec
reelec ted</w>
re discover</w>
re directed</w>
re comm
re bound</w>
re auc
re ating</w>
re act</w>
ran king</w>
ran ging</w>
ran dom
ran ch</w>
radi ation</w>
ra se</w>
ra ped</w>
ra m</w>
ra d</w>
r ul
r ty</w>
r o</w>
r hy
rhy th
r arian</w>
r ab
quot as</w>
qui sition</w>
qui et</w>
que ue</w>
qu or
quor um</w>
qu ari
quari um</w>
puppe t</w>
pul sion</w>
pul ls</w>
publi sh
pu shes</w>
pu ff
puff ing</w>
psycho logy</w>
psycho logical</w>
provi sions</w>
provi ders</w>
proto cells</w>
prote ins</w>
propor tional</w>
prop he
prophe t</w>
promo tes</w>
promis ed</w>
proli fer
projec ting</w>
projec ted</w>
progre s
prof its</w>
produc tivity</w>
produc er</w>
proce du
procedu res</w>
proble matic</w>
pro ven</w>
pro test</w>
pro position</w>
pro posed</w>
pro ph
proph ec
prophec y</w>
pro per</w>
privile ged</w>
prin ting</w>
pri ze</w>
pri mor
primor dial</w>
press ing</w>
presi dents</w>
presi dent</w>
presen tations</w>
presen tation</w>
pres sions</w>
prepar ing</w>
prepar ation</w>
preci se</w>
pre vention</w>
pre sume</w>
pre ssed</w>
pre serve</w>
pre mise</w>
pre mi
premi ered</w>
pre jud
prejud ice</w>
pre h
pre gn
practi tioners</w>
prac tic
pr ing</w>
pr ices</w>
pp m</w>
pos session</w>
pos iting</w>
portra it</w>
por tion</w>
por ted</w>
pop ulations</w>
pooh ing</w>
pooh -
pooh- poohing</w>
poo rest</w>
poll ution</w>
poll o</w>
polic em
policem an</w>
poli tician</w>
poli tically</w>
poli cies</w>
pol ar</w>
pois oned</w>
po wers</w>
po wder</w>
po the
po sters</w>
po st
po les</w>
ple ssness</w>
play er</w>
plat form</w>
plan et
pl ying</w>
pl itude</w>
pl enti
plenti ful</w>
pl ate
plate a
platea u</w>
pl ans</w>
pic king</w>
pi xels</w>
pi lot</w>
pi le</w>
phy siology</w>
pho logy</w>
philosoph y</w>
philosoph ical</w>
pharmaceu ticals</w>
pharmaceu tical</w>
ph thalates</w>
ph rase</w>
ph ony</w>
ph in</w>
ph ilanthropy</w>
ph ery</w>
ph any</w>
persua sion</w>
person alized</w>
person 's</w>
peri phery</w>
perfec tions</w>
per mission</w>
per mis
permis sionless</w>
pen is
penis es</w>
pen cil</w>
pe da
pe ace
peace ful</w>
pati en
patien t's</w>
pati al</w>
pas sively</w>
pas sive</w>
pas ses</w>
pas sengers</w>
pas sage</w>
partner ships</w>
particip atory</w>
particip ated</w>
para do
parado x</w>
par ach
parach ute</w>
pan el</w>
pale o
paleo anthro
paint ings</w>
paint brush</w>
pa tho
pa th
pa ste</w>
pa ired</w>
pa int</w>
p y
p un
p tic</w>
p se</w>
p s
p rou
p ound</w>
p lot</w>
p ir
p ine</w>
p ill
pill ar</w>
p iles</w>
p ha
p eci
peci fically</w>
p ays</w>
p any</w>
p ad
pad dle</w>
p ack
p ac
pac ked</w>
oxy gen</w>
own er's</w>
overwhel med</w>
overwhel m</w>
over turned</w>
over due</w>
over come</w>
out- of-
out put</w>
out patient</w>
our nal</w>
our ce</w>
other 's</w>
ot ope</w>
orm one</w>
ori gam
ori a</w>
organiz ational</w>
organ ism</w>
orb iting</w>
or ry</w>
or ous</w>
or itarian</w>
or id
orid a</w>
or ical</w>
or ic</w>
or ding</w>
optim um</w>
opini ons</w>
opini on</w>
oper ator</w>
oper ations</w>
oper ation</w>
open -
op ium</w>
op ically</w>
op er</w>
op ens</w>
op ar
op -
op- ed</w>
one- off
one-off s</w>
one- man</w>
one- dimensional</w>
on place</w>
on ics</w>
on ically</w>
on going</w>
on g
on ey</w>
on en
onen ess</w>
on aire</w>
on ]</w>
on -
ome town</w>
om ous</w>
om ical</w>
om ic</w>
om es</w>
off shore</w>
off ic
offic er</w>
off ers</w>
odor ants</w>
od d</w>
occurr ence</w>
occur red</w>
occa sion</w>
oc topod</w>
obser ve</w>
obli vious</w>
objec tives</w>
objec tive</w>
ob tained</w>
ob scure</w>
ob ert</w>
ob 's</w>
o- percent</w>
o- engineered</w>
o wned</w>
o we</w>
o v</w>
o ts</w>
o tive</w>
o tid</w>
o static</w>
o on</w>
o ked</w>
o ke</w>
o k
ok o</w>
o graph</w>
nuc k
nu d
note book</w>
nor theast</w>
non- inv
non-inv a
non-inva sive</w>
non- human</w>
no vel</w>
no on</w>
no is
nois y</w>
no des</w>
night mar
nific ent</w>
ni an</w>
neuro science</w>
neur on</w>
net worked</w>
neighb or</w>
nee dless</w>
nee dle</w>
nee d
need les</w>
ne g
neg ative</w>
ne dy</w>
ne at</w>
ne arest</w>
navi gate</w>
nati on
nat ure's</w>
nat urally</w>
narra tive</w>
nar row</w>
na sty</w>
n ut</w>
n un
n in
nin th</w>
n eled</w>
n ds</w>
n am</w>
myster y</w>
mys tical</w>
my thical</w>
my thic</w>
my opically</w>
murder er</w>
mu d</w>
mounta in
mountain top</w>
motiv ator</w>
moti vate</w>
mosqu e</w>
mor tgages</w>
mor phology</w>
mor ally</w>
month- olds</w>
mon th's</w>
mon soon</w>
mom s</w>
mom en
momen tum</w>
modi ties</w>
modern -
modern- day</w>
mo ther's</w>
mo p</w>
mo od</w>
mo lars</w>
mo ist
moist ure</w>
mo bility</w>
missi les</w>
missi le</w>
mir ac
mind sets</w>
mind blowing</w>
min i
min es</w>
migr ate</w>
midd le-
middle- aged</w>
micro scopic</w>
micro scope</w>
micro phone</w>
micro bi
microbi al</w>
mi d-
mi a</w>
metaph or
mes osphere</w>
mer ely</w>
ment ine</w>
ment ary</w>
men tation</w>
men se</w>
men 's</w>
mem bran
membran e</w>
medic ines</w>
medic ations</w>
medi um</w>
mechan ical</w>
mean while</w>
me me
me lo
melo dy</w>
mathema ticians</w>
mathema tically</w>
mas se</w>
marke t
mark ings</w>
mar ks</w>
mar ch</w>
manu script</w>
manife station</w>
man ner</w>
man kind</w>
man aging</w>
mammo gra
mammogra m</w>
mamm als</w>
main stream</w>
magne tic</w>
mag nificent</w>
mag nets</w>
mag ical</w>
ma ssi
ma shed</w>
ma r</w>
ma ker</w>
ma ke
ma k
ma da</w>
ma d</w>
m makers</w>
m ma</w>
m ere</w>
m ber</w>
m ate</w>
m ans</w>
ly wood</w>
low- cost</w>
loo p</w>
lon ging</w>
lon ely</w>
loc king</w>
loc au
locau st</w>
loc ated</w>
lo west</w>
lo ves</w>
lo sure</w>
lo red</w>
lo g</w>
lo ca
loca vores</w>
lo ans</w>
list ened</w>
lin ders</w>
lim pse</w>
lim its</w>
lim itation</w>
lim entary</w>
ligh ting</w>
ligh ter</w>
li ti
li p</w>
li kes</w>
li ked</w>
li gence</w>
li f
li eve</w>
li day</w>
lex icon</w>
let ters</w>
less ly</w>
leg acy</w>
lec ture</w>
lear ly</w>
lea ky</w>
lea k</w>
le tting</w>
le mentine</w>
le gi
le ge</w>
le ash</w>
lay ers</w>
law ns</w>
laun chers</w>
laun ched</w>
large- scale</w>
laparo scopic</w>
lan ded</w>
lam ps</w>
lam p</w>
la unch</w>
la m</w>
la de
lade sh</w>
l ure</w>
l unch</w>
l timately</w>
l ord</w>
l is</w>
l in</w>
l ers</w>
l en
l ay</w>
l au
l ati
lati tude</w>
l atest</w>
l at
l ar</w>
l ag
l ack</w>
l ac
ky o</w>
knowle d
kno cks</w>
kin der
kinder gar
kindergar ten</w>
kilogra ms</w>
ki stan
ki e's</w>
ker chi
kerchi efs</w>
kee ps</w>
ke ys</w>
ke wise</w>
ke ting</w>
ke tball</w>
k oko</w>
k nuck
k les</w>
k it</w>
k ing
king 's</w>
k ies</w>
k i</w>
justi fy</w>
jun kies</w>
jun k</w>
jo int</w>
jo ining</w>
jo ined</w>
je alousy</w>
ja w</w>
j umps</w>
j um
j an
jan it
janit ors</w>
j ack
jack et</w>
it eria</w>
it er
it em</w>
is otope</w>
ir t</w>
ir onically</w>
ir on</w>
investig ation</w>
investig ated</w>
investig ate</w>
invest ing</w>
inver t</w>
inv ol
inv ent</w>
intr in
interest ingly</w>
inter views</w>
inter ventions</w>
inter vention</w>
inter sections</w>
inter pre
inter personal</w>
inter net</w>
inter i
interi or</w>
inter cept</w>
inter action</w>
inter acting</w>
inter acted</w>
inten sive</w>
inten se</w>
intan gible</w>
instinc ts</w>
inst ant</w>
inst all
install ation</w>
innov ators</w>
inno cent</w>
injur ies</w>
injec ting</w>
initi atives</w>
inhal ed</w>
infor med</w>
influ ences</w>
influ enced</w>
inf ect</w>
ine m</w>
ine a</w>
indic ate</w>
independ ently</w>
independ ence</w>
inclu des</w>
in tiwatana</w>
in timidating</w>
in timacy</w>
in take</w>
in sul
in sistence</w>
in si
in n
in king</w>
in habit</w>
in ge
inge sted</w>
in fl
in exha
inexha ustible</w>
in er</w>
in duc
in doctr
indoctr ination</w>
in cu
in ative</w>
in at
in animate</w>
in accurate</w>
imper ative</w>
imp lement</w>
imp acts</w>
imp acted</w>
immer sion</w>
imag ined</w>
imag inative</w>
im posing</w>
im perfections</w>
im p</w>
im mense</w>
im it
illi am</w>
ill uminate</w>
ili ties</w>
il t</w>
il arly</w>
igh ts</w>
ide alistic</w>
id ly</w>
id ance</w>
ich tenberg</w>
ic ulture</w>
ic ons</w>
ic k
ic ero</w>
ic a
ica p</w>
ia o</w>
iP h
iPh one</w>
i p
i ded</w>
i bia</w>
i b
hyperbo lic</w>
hydro gen</w>
hybri ds</w>
hy pothe
husb and</w>
hump backs</w>
human ize</w>
human ity's</w>
hum ble</w>
hot spot</w>
hospit able</w>
horse man</w>
hormon es</w>
hormon al</w>
horiz ons</w>
hor ri
hop el
hopel ess
hon oring</w>
home ostatic</w>
hom unculus</w>
hol low</w>
hob by</w>
hi stories</w>
hi ked</w>
hi ke</w>
hi ding</w>
her o
hel ps</w>
hel plessness</w>
hel p
hel met</w>
hel ls</w>
hel f</w>
hear ts</w>
head -
hea vily</w>
hea vens</w>
he ap
heap ing</w>
he al</w>
harve st</w>
har d-
happ ily</w>
happ iest</w>
hand writing</w>
hand write</w>
hand shake</w>
hand kerchiefs</w>
hand icap</w>
han g</w>
ham mer</w>
ham bur
halluc inations</w>
hall way</w>
hal f-
half- million</w>
hac king</w>
habit ats</w>
ha ttan</w>
ha ts</w>
ha ted</w>
ha el</w>
ha ck</w>
ha bits</w>
h ut</w>
h urt</w>
h ousing</w>
h ormone</w>
h ire</w>
h ill</w>
h i</w>
h exag
hexag ons</w>
h es</w>
gun k</w>
guar dian</w>
gu inea</w>
gu ilt</w>
grou nds</w>
gro ssly</w>
gro ss</w>
green house</w>
gre es</w>
gre ening</w>
grass land</w>
gran dd
grandd ad</w>
gradu ate</w>
gra titude</w>
gra in</w>
gra b</w>
gr in
gr iculture</w>
gr ateful</w>
gr ated</w>
gr ace
grace fully</w>
gog gles</w>
go tta</w>
go la</w>
go als</w>
glob ally</w>
glob alized</w>
glo be</w>
gl asses</w>
gi zed</w>
genu inely</w>
genu ine</w>
gentle men</w>
gentle man</w>
gent s'</w>
gener ative</w>
gener ate</w>
gene ous</w>
gen omes</w>
gen es</w>
ge stures</w>
ge st
ge sics</w>
ge o-engineered</w>
gar age</w>
gan ization</w>
gam ma</w>
gall ery</w>
gain ed</w>
ga ther</w>
ga dish
gadish u</w>
ga dem
gadem a</w>
g ut</w>
g ulags</w>
g our
g ments</w>
g limpse</w>
g ill</w>
g au
g ates</w>
g ate
g as
g aps</w>
g ang
g anda</w>
g al</w>
g ain</w>
fundamental s</w>
fundam entally</w>
func tions</w>
fun eral</w>
fulf illing</w>
ful l-
fu se</w>
fu r</w>
fu els</w>
fru strating</w>
fron tier</w>
fron t-end</w>
fro gs</w>
fro g</w>
fric tion</w>
frea king</w>
fre e-
free- ri
fr action</w>
fossi ls</w>
form ul
form alized</w>
form al</w>
fore station</w>
forbi dding</w>
for um</w>
for got</w>
for getting</w>
for ge</w>
for c
forc ement</w>
fo ster</w>
fo ol</w>
fluctu ations</w>
flo wn</w>
flo wing</w>
flo wering</w>
flo ors</w>
flo or</w>
fle xible</w>
fla wed</w>
fla g</w>
fl ash
fl ares</w>
five- inch</w>
fir ms</w>
fir ing</w>
fil mmakers</w>
fil ming</w>
fig uring</w>
fif th</w>
fi remen</w>
fi es</w>
ff les</w>
fetu ses</w>
fer rofluid</w>
fer al</w>
fel lows</w>
fel low</w>
feed backs</w>
fe vers</w>
fe terias</w>
fe moral</w>
fe der
fe at
fascin ated</w>
far ther</w>
fant asy</w>
fall s</w>
fac ts</w>
fac tories</w>
fac tions</w>
fac ilities</w>
fac ed</w>
fa thers</w>
fa ther's</w>
fa int</w>
f ying</w>
f ts</w>
f ought</w>
f lick</w>
f illed</w>
f i</w>
f ate</w>
f at</w>
f an</w>
f al
fal se</w>
f ad
ey ond</w>
extre mes</w>
extra solar</w>
extinc tion</w>
exten sion</w>
exten ded</w>
explo ded</w>
explan ations</w>
explain ed</w>
experi encing</w>
exper t</w>
expect ancy</w>
expec ting</w>
expe dition</w>
exp on
exist ential</w>
exist ence</w>
exclu sive</w>
excep tional</w>
exag ger
ex u
ex tern
ex pressed</w>
ex posed</w>
ex er
ex ecu
ex cer
excer pt</w>
ex cell
excell ence</w>
ex ce
exce eds</w>
evol ve</w>
every thing's</w>
ev ator</w>
ev alu
evalu ation</w>
et roit</w>
et nam</w>
estim ates</w>
estim ate</w>
est ing</w>
est -
ess ed</w>
esp ite</w>
esp an</w>
escap e</w>
es us</w>
es say</w>
es h</w>
es cal
es a</w>
eradic ation</w>
eradic ate</w>
er ec
er ana</w>
er able</w>
equi valent</w>
equi pped</w>
equ ality</w>
epi phany</w>
epi le
enti tled</w>
enti c</w>
enti a</w>
ent en
enten ary</w>
ent ang
enni e</w>
ener gized</w>
enab ling</w>
en zyme</w>
en vy</w>
en vision</w>
en thusi
en tation</w>
en sure</w>
en stein</w>
en rollment</w>
en ki</w>
en gender</w>
en g</w>
en forcement</w>
en force</w>
en demic</w>
en cry
en coura
encoura ged</w>
en counter</w>
en as</w>
en ais
enais sance</w>
empower ment</w>
emplo yment</w>
emplo yees</w>
emo tionally</w>
emer ges</w>
embar ra
em in
em entary</w>
em anci
emanci p
em an
eli minate</w>
electr onics</w>
elec tro
elec toral</w>
elec tions</w>
el son</w>
el se's</w>
el lows</w>
el evator</w>
el est</w>
el ementary</w>
el ded</w>
el and</w>
el a</w>
el 's</w>
eight- legged</w>
eg gs</w>
ed ited</w>
ed eli</w>
ed a</w>
eco systems</w>
ear thquake</w>
ea p</w>
e ver-
e vement</w>
e urysms</w>
e era</w>
e en</w>
e al
eal and</w>
e ag
dy e</w>
dun es</w>
duc ation</w>
du ty-free</w>
dro wned</w>
dri p</w>
dri ed</w>
dres sing</w>
dream ing</w>
dra wn</w>
dra wing</w>
dra g</w>
dr un
dr inking</w>
dr ill</w>
dr en's</w>
down ward</w>
down sides</w>
down loads</w>
doubl ings</w>
dor ov</w>
don ors</w>
dol phin</w>
dol lar</w>
docum entary</w>
doctr ines</w>
do ts</w>
do t-com</w>
do g's</w>
distinc t</w>
dist urb
disinte gration</w>
discus sing</w>
discus s</w>
disc losure</w>
disassoci ation</w>
disassoci ated</w>
disappe ared</w>
dis played</w>
dis belief</w>
diplom ati
din bur
dinbur gh</w>
din avi
dig it</w>
differ ently</w>
differ ential</w>
dic tion</w>
dic ine</w>
diag ram</w>
diag no
diabe tes</w>
dia meter</w>
dia c</w>
di vine</w>
di versify</w>
di stor
di ss
di sm
di rty</w>
di oxide</w>
di m
di ligence</w>
di le
di d
did n’t</w>
di ans</w>
di al
devi sed</w>
develo pers</w>
dev our</w>
determin es</w>
determin ation</w>
deta ils</w>
dest iny</w>
dest ined</w>
dest abili
destabili zed</w>
descri ption</w>
descri bing</w>
depend ent</w>
dep ths</w>
dep lo
den sity</w>
den ied</w>
demon strate</w>
demo lish</w>
deman ds</w>
dem entia</w>
deli ver
deli cious</w>
del ay</w>
defen se</w>
def ensive</w>
def end</w>
dee pest</w>
dee per</w>
deci des</w>
dec line</w>
dea ths</w>
de tached</w>
de pri
de positing</w>
de light</w>
de ligh
de grees</w>
de gree</w>
de forestation</w>
de aling</w>
de al
de ad
datab ase</w>
dat ory</w>
dat es</w>
da wn</w>
da 's</w>
d- out</w>
d- like</w>
d umps</w>
d son</w>
d ough</w>
d ingly</w>
d den</w>
d ated</w>
d are</w>
d ancing</w>
cybercrimin als</w>
cybercrimin al</w>
cy linders</w>
cy cles</w>
custom ized</w>
custom ers</w>
curr ents</w>
cul tivate</w>
cu d</w>
cryst al</w>
cru elest</w>
cru el</w>
crow d
cross- discipline</w>
crimin al</w>
cri tically</w>
cri tic
cri mes</w>
cra fts</w>
cr ucial</w>
cr iteria</w>
cr acks</w>
cover s</w>
coura ge
cour ses</w>
coun ter
coun sel</w>
cou sins</w>
cou sin</w>
cou rage</w>
cou p</w>
cos metic</w>
corru ption</w>
corru gated</w>
corrid ors</w>
corpor ation</w>
cor rec
cor dingly</w>
cor al</w>
cop ying</w>
cop y</w>
conver ts</w>
conver ted</w>
conver t</w>
conver sations</w>
contro versial</w>
contr act</w>
continu ously</w>
continu ous</w>
conta min
conta iner</w>
conta ined</w>
consum ing</w>
consum er</w>
consider ing</w>
consider ed</w>
consider ation</w>
consi sts</w>
connec ting</w>
connec tedness</w>
confir med</w>
confir m</w>
conf ess</w>
conduc ted</w>
condem ned</w>
concer n</w>
concep ts</w>
con vey</w>
con ven
con tribute</w>
con tribu
con tain</w>
con stra
con sequences</w>
con quer</w>
con fusion</w>
con fron
con du
con ception</w>
con centr
compu tational</w>
competi tive</w>
compe tence</w>
compani on</w>
compan ied</w>
comp limentary</w>
comp ass</w>
commit ment</w>
comman der</w>
comm onplace</w>
comfor t</w>
com promising</w>
com preh
com ets</w>
colon ization</w>
colli sion</w>
colleag ue</w>
collap se</w>
col umn</w>
col ors</w>
col or-
coinci ded</w>
cock roach</w>
co- developers</w>
co oked</w>
co ld</w>
co at</w>
co ar
co aching</w>
clu b</w>
clo sest</w>
clo sely</w>
clim b</w>
clich é</w>
clic king</w>
cli ps</w>
cli p</w>
clean ers</w>
class ical</w>
cl ue</w>
cl ed</w>
civiliz ation</w>
citi zens</w>
choo sing</w>
cho sen</w>
cho se</w>
cho col
chimpanz ee</w>
chil ls</w>
chil dren's</w>
chi ef</w>
chec ks</w>
chec ked</w>
che sts</w>
che mo
char m</w>
chan nels</w>
chan neled</w>
cha ir</w>
cha ins</w>
ch ur
ch romosome</w>
ch imp</w>
ch ill</w>
ch ial</w>
ch est</w>
ch eap</w>
cess es</w>
ces c
cesc a</w>
cer tific
centr alized</w>
cen sorship</w>
cell ular</w>
celebr ity</w>
cel er
ce st</w>
cau sing</w>
catap ult</w>
cataly st</w>
catal o
cat ching</w>
carto on</w>
car ried</w>
car ri
car pe
car otid</w>
car go</w>
car ed</w>
car diac</w>
capit alism</w>
cap sule</w>
cap aci
capaci ties</w>
cap able</w>
candi dates</w>
candi date</w>
can opy</w>
can ine</w>
can dinavi
campa ign</w>
campa ig
cam ping</w>
cam p
calcul ations</w>
calcul ated</w>
cal m</w>
cab ins</w>
ca the
ca feterias</w>
ca -
ca- Col
ca-Col a</w>
c tic</w>
bur sting</w>
bur ied</w>
bul let</w>
bul b</w>
bul ance</w>
buil ders</w>
bug gy</w>
bud get</w>
bub bles</w>
bu ying</w>
bu reauc
bron chial</w>
bro thers</w>
bro the
bri ghtly</w>
break through</w>
brea th
bre eding</w>
bre ed</w>
bra ham</w>
br ary</w>
boo ts</w>
boo st</w>
boo kistan</w>
bon ds</w>
bo s</w>
bo oms</w>
blo wn</w>
blin ds</w>
ble w</w>
bl an
blan ket</w>
bit ter</w>
bit r
birth day</w>
biom ass</w>
bio logical</w>
bio diversity</w>
bio chemistry</w>
bi op
bi ol
bi c</w>
ber t</w>
ber erana</w>
benef icial</w>
bene ath</w>
belon gs</w>
bel ls</w>
bec ue</w>
be wilderment</w>
be spoke</w>
be ating</w>
be aten</w>
be aring</w>
be aches</w>
batter ies</w>
base ball</w>
bas ketball</w>
bas in</w>
bar ber</w>
bar becue</w>
bar ak</w>
ban king</w>
ban ia</w>
ban an
banan as</w>
bal een</w>
back grounds</w>
bac ked</w>
bab ies</w>
ba throom</w>
b uc
b ol
b log
b locking</w>
b ird</w>
b ins</w>
b in
b il
b id</w>
b ars</w>
b arely</w>
b and
b ama</w>
b allo
b all
b adly</w>
az eera</w>
ax ter</w>
ax es</w>
aw k
aw ful</w>
auton omous</w>
auth orities</w>
auth oritarian</w>
auth or</w>
auth entic</w>
aud acious</w>
auc as
aucas us</w>
au ts</w>
attr acted</w>
attr act</w>
atti tudes</w>
attem pt</w>
attach ment</w>
attach ed</w>
attac king</w>
attac ked</w>
atmo spheres</w>
ati vely</w>
athe ists</w>
at ten
at omic</w>
at o
at ers</w>
at ari</w>
at a</w>
at -
astron auts</w>
aston ished</w>
astero id</w>
assum ptions</w>
associ ated</w>
asse ss</w>
asp ire</w>
asp en</w>
as th
as sume</w>
as pi
as eline</w>
artic les</w>
arri ved</w>
arri ve</w>
arran gement</w>
arche types</w>
arch y</w>
ar ry</w>
ar row</w>
ar rested</w>
ar range</w>
ar enas</w>
ar bitr
appropri ate</w>
approach ing</w>
appro ved</w>
appreci ation</w>
appar ently</w>
app lied</w>
ap tly</w>
ap ta
ap t</w>
anu ts</w>
anticip ated</w>
ans wering</w>
ans wered</w>
ang ry</w>
ang ladesh</w>
ang es</w>
ang els</w>
ance stor</w>
anc tuary</w>
analy zing</w>
analy zed</w>
anal ysis</w>
an xious</w>
an xiety</w>
an while</w>
an ks</w>
an i</w>
an hattan</w>
an eurysms</w>
an esh</w>
amoun ts</w>
ama zed</w>
am plitude</w>
am ibia</w>
am bulance</w>
am bition</w>
altern atives</w>
alt man</w>
allo wing</w>
all s</w>
ali ens</w>
algorith mic</w>
algorith m</w>
al m</w>
al locate</w>
al li
al ley</w>
air port</w>
air plane</w>
ain ed</w>
aim ing</w>
ai wan</w>
agre ements</w>
ag rarian</w>
ag ents</w>
ag ency</w>
after noon</w>
after math</w>
afford able</w>
aff ects</w>
adv an
adop tion</w>
adop ted</w>
ad ore</w>
ad mit</w>
ad just</w>
ad diction</w>
ad ad
acu tely</w>
activi sts</w>
activi st</w>
activi sm</w>
acti v
acous tically</w>
achi evement</w>
accur acy</w>
accep tance</w>
acade mic</w>
acade mia</w>
ac ro
ac quisition</w>
ac knowledge</w>
ac knowled
ac id</w>
ac e-
ac cu
ac count
ac cordingly</w>
ac companied</w>
ac celer
abund ant</w>
ab surd</w>
ab str
ab ri
ab o</w>
ab baleen</w>
ab and
a ward</w>
a wake</w>
a un
a ther</w>
a stro
a partment</w>
a part</w>
a h
a -
[unclear ]</w>
Z ero</w>
Z er
Z ealand</w>
Z altman</w>
Z abbaleen</w>
You ’re</w>
Y ear</w>
X- ray</w>
Wor king</w>
Wh it
Wh ere's</w>
Wel witschia</w>
Wel come</w>
Wei bo</w>
We 'd</w>
W right</w>
W oo
W illiam</w>
W il
W L</w>
Vi ol
Vi king</w>
Vi etnam</w>
V aseline</w>
V an</w>
Uni verse</w>
Under standing</w>
Under stand</w>
Un der</w>
U topian</w>
U shahidi</w>
U mar</w>
U ltimately</w>
U ganda</w>
U I</w>
Twenty- four</w>
Tw o-percent</w>
Tum or</w>
Tran sparency</w>
Toraj ans</w>
To shiba</w>
To kyo</w>
To gether</w>
To dorov</w>
Tit anic</w>
They 'd</w>
Th ursday</w>
Ter esa</w>
Tem bererana</w>
T- 10</w>
T y
T unisia</w>
T reating</w>
T reachery</w>
T hat
T e
T ali
T aiwan</w>
T F
TF E</w>
T B</w>
Sund ance</w>
Su fi</w>
Stu dents</w>
Ste ve</w>
St ars</w>
So ci
Sim ilarly</w>
Si x</w>
Shir ley</w>
Secon d
Sco tt</w>
Sco tch</w>
Sam uel</w>
SI CK</w>
S ylvia</w>
S ure</w>
S um
S tyrofoam</w>
S traw</w>
S talin</w>
S pring</w>
S pecifically</w>
S patial</w>
S ource</w>
S ounds</w>
S orry</w>
S ol
S helf</w>
S he
S cud</w>
S candinavi
S ay</w>
S anctuary</w>
S ame</w>
S adly</w>
S a
S S</w>
Rus sians</w>
Ro ss</w>
Ro bo
Rec ording</w>
Re port</w>
Re member</w>
Re ally</w>
R u
R ou
R omo</w>
R ome</w>
R obert</w>
R ise</w>
R ight</w>
R ice</w>
R evolution</w>
R es
R enaissance</w>
R ed</w>
R ain
R I
RI SD</w>
Prin cess</w>
Pri ze</w>
Por tu
Po stSecret</w>
Po li
Pit tsbur
Pi sar</w>
Per haps</w>
Pe tri</w>
Palestini an</w>
Palest ine</w>
Pal o</w>
Pa kistan
PT CH
P ur
P ublic</w>
P la
P in
P h</w>
P ain</w>
P L</w>
P L
P I
PI SA</w>
Or ganization</w>
O z</w>
O ver
O pen</w>
O l
O bama</w>
O WL</w>
O S</w>
O CR</w>
Nor thwest</w>
Nor man</w>
Niger ian</w>
Niger ia</w>
Ne w
N elson</w>
N amibia</w>
N G
Mus ica</w>
Mu seum</w>
Mu barak</w>
Mo gadishu</w>
Mo by</w>
Mo bile</w>
Min ority</w>
Mic hael</w>
Me taph
Me dicine</w>
Me anwhile</w>
Mathema ticians</w>
Marc us</w>
Ma koko</w>
Ma kers</w>
MR I</w>
MP 3</w>
M unich</w>
M ill</w>
M il
M i
M en</w>
M echan
M anhattan</w>
M A
Luc as</w>
Lin da</w>
Lin da's</w>
Lin d
Lin col
Life Straw</w>
Li verpool</w>
Li thium-6</w>
Li kewise</w>
Li by
Li b
Le gadema</w>
Le ft</w>
Le a
La gos</w>
LE D</w>
L oo
L il
L ichtenberg</w>
L ast</w>
L arry</w>
L ange</w>
L an
Kore ans</w>
Kh rushchev</w>
Ken nedy</w>
K o
K ing</w>
K B</w>
Juli et</w>
Jo shua</w>
Jo seph</w>
Jer usalem</w>
Je wish</w>
Je alousy</w>
J ournal</w>
J im</w>
J esus</w>
J ennie</w>
J azeera</w>
J PL</w>
Ital y</w>
Isra el</w>
Is n't</w>
Is lands</w>
Is lam</w>
Inter national</w>
Inter esting</w>
Infin ity</w>
In stitute</w>
In n</w>
In du
In credible</w>
ID S</w>
I ts</w>
I r
I ce</w>
I G
IG F
IGF -
IGF- 1</w>
Hu dson</w>
Ho locaust</w>
Ho liday</w>
Hind us</w>
Hawai i</w>
Ham as</w>
H undreds</w>
H ometown</w>
H ome</w>
H ol
H er
H ar
H app
H al
Gu ide</w>
Gro wing</w>
Gra vity</w>
Gol den</w>
Gol d
Go vernments</w>
Go thic</w>
Go li
Go als</w>
Glob al</w>
Ger shwin</w>
G round</w>
G ot</w>
G od's</w>
G o</w>
G ir
G ini</w>
G ar
G anesh</w>
G 4
G4 s</w>
G 20</w>
Fran kie's</w>
Fran k</w>
Fran cesca</w>
Fl orida</w>
Fi eld</w>
Face bookistan</w>
Fac ed</w>
F riday</w>
F our</w>
F oundation</w>
F ore
F ellows</w>
F edeli</w>
F e
F at
F al
F a
Europe 's</w>
Ethiop ian</w>
Ethiop ia</w>
Eng el
En lightenment</w>
Econ om
E x
E volution</w>
E stonia</w>
E ssex</w>
E ssentially</w>
E ric</w>
E rez</w>
E ducation</w>
E dinburgh</w>
E den</w>
E d
E cology</w>
E TFE</w>
E D</w>
Dou g</w>
Di rect</w>
Di dn't</w>
Develo pment</w>
Del ta</w>
Del hi</w>
De pression</w>
De ep</w>
D urkheim</w>
D re
D o
D ick</w>
D etroit</w>
D espite</w>
D ep
D emo
D V
D G</w>
D C</w>
Cri tic</w>
Con sumption</w>
Con sensus</w>
Com pany</w>
Com modities</w>
Col umns</w>
Co vington</w>
Co oper</w>
Co ca-Cola</w>
Clar ke's</w>
Chri stmas</w>
Chri sti
Char lie</w>
Ch ange</w>
Ch all
Cen ter's</w>
Cas a</w>
Car gill</w>
Can a
Can 't</w>
Camer on</w>
Ca tholic</w>
CA PTCH
C lementine</w>
C learly</w>
C icero</w>
C iao</w>
C aucasus</w>
C ars</w>
C al
C age</w>
C abo</w>
C T</w>
C E
C D</w>
Bur ling</w>
Bu y</w>
Bro wn
Bro ther</w>
Br on
Bos nia</w>
Bic entenary</w>
Be lieve</w>
Bal i</w>
Bab ylon</w>
Bab ylon
Bab ies</w>
B yron</w>
B ush</w>
B ru
B rooklyn</w>
B right</w>
B ot</w>
B ob's</w>
B ill</w>
B hu
B eyond</w>
B ess</w>
B er
B enki</w>
B axter</w>
B ank</w>
B angladesh</w>
B P
B C</w>
Au stri
Au dience</w>
Ari sto
Architec ture</w>
Architec ts</w>
Archi e</w>
Arab ia</w>
Ar mada</w>
Ar ctic</w>
An ts</w>
An gola</w>
An dy</w>
An drew</w>
Al to</w>
Al bert</w>
Al bania</w>
Al an</w>
Ag ainst</w>
Ag ain</w>
Ag a</w>
A ward</w>
A stro
A sk</w>
A s
A quarium</w>
A pp
A pollo</w>
A m
A l</w>
A ir
A i</w>
A griculture</w>
A braham</w>
A T</w>
A L
A IDS</w>
A C</w>
A BC</w>
7 8</w>
7 14</w>
50- mile</w>
50 0s</w>
5 5</w>
40 4</w>
4 50</w>
3 5</w>
3 1</w>
3 000</w>
200 4</w>
200 2</w>
200 1</w>
20 15</w>
20 11</w>
2 9</w>
2 3</w>
198 9</w>
198 4</w>
198 3</w>
198 0s</w>
197 9</w>
196 0</w>
19 90</w>
19 50s</w>
19 47</w>
12 52</w>
12 -year-old</w>
1 70</w>
1 500s</w>
1 5-
1 40</w>
1 400</w>
1 3-
1 1
0 0
- ness</w>
- based</w>
